{
  "version": "1.0",
  "truncation": null,
  "padding": null,
  "added_tokens": [],
  "normalizer": null,
  "pre_tokenizer": {
    "type": "ByteLevel",
    "add_prefix_space": true,
    "trim_offsets": true,
    "use_regex": true
  },
  "post_processor": {
    "type": "ByteLevel",
    "add_prefix_space": true,
    "trim_offsets": true,
    "use_regex": true
  },
  "decoder": {
    "type": "ByteLevel",
    "add_prefix_space": true,
    "trim_offsets": true,
    "use_regex": true
  },
  "model": {
    "type": "BPE",
    "dropout": null,
    "unk_token": null,
    "continuing_subword_prefix": null,
    "end_of_word_suffix": null,
    "fuse_unk": false,
    "byte_fallback": false,
    "vocab": {
      "!": 0,
      "\"": 1,
      "#": 2,
      "$": 3,
      "%": 4,
      "&": 5,
      "'": 6,
      "(": 7,
      ")": 8,
      "*": 9,
      "+": 10,
      ",": 11,
      "-": 12,
      ".": 13,
      "/": 14,
      "0": 15,
      "1": 16,
      "2": 17,
      "3": 18,
      "4": 19,
      "5": 20,
      "6": 21,
      "7": 22,
      "8": 23,
      "9": 24,
      ":": 25,
      ";": 26,
      "<": 27,
      "=": 28,
      ">": 29,
      "?": 30,
      "@": 31,
      "A": 32,
      "B": 33,
      "C": 34,
      "D": 35,
      "E": 36,
      "F": 37,
      "G": 38,
      "H": 39,
      "I": 40,
      "J": 41,
      "K": 42,
      "L": 43,
      "M": 44,
      "N": 45,
      "O": 46,
      "P": 47,
      "Q": 48,
      "R": 49,
      "S": 50,
      "T": 51,
      "U": 52,
      "V": 53,
      "W": 54,
      "X": 55,
      "Y": 56,
      "Z": 57,
      "[": 58,
      "\\": 59,
      "]": 60,
      "^": 61,
      "_": 62,
      "`": 63,
      "a": 64,
      "b": 65,
      "c": 66,
      "d": 67,
      "e": 68,
      "f": 69,
      "g": 70,
      "h": 71,
      "i": 72,
      "j": 73,
      "k": 74,
      "l": 75,
      "m": 76,
      "n": 77,
      "o": 78,
      "p": 79,
      "q": 80,
      "r": 81,
      "s": 82,
      "t": 83,
      "u": 84,
      "v": 85,
      "w": 86,
      "x": 87,
      "y": 88,
      "z": 89,
      "{": 90,
      "|": 91,
      "}": 92,
      "~": 93,
      "¡": 94,
      "¢": 95,
      "£": 96,
      "¤": 97,
      "¥": 98,
      "¦": 99,
      "§": 100,
      "¨": 101,
      "©": 102,
      "ª": 103,
      "«": 104,
      "¬": 105,
      "®": 106,
      "¯": 107,
      "°": 108,
      "±": 109,
      "²": 110,
      "³": 111,
      "´": 112,
      "µ": 113,
      "¶": 114,
      "·": 115,
      "¸": 116,
      "¹": 117,
      "º": 118,
      "»": 119,
      "¼": 120,
      "½": 121,
      "¾": 122,
      "¿": 123,
      "À": 124,
      "Á": 125,
      "Â": 126,
      "Ã": 127,
      "Ä": 128,
      "Å": 129,
      "Æ": 130,
      "Ç": 131,
      "È": 132,
      "É": 133,
      "Ê": 134,
      "Ë": 135,
      "Ì": 136,
      "Í": 137,
      "Î": 138,
      "Ï": 139,
      "Ð": 140,
      "Ñ": 141,
      "Ò": 142,
      "Ó": 143,
      "Ô": 144,
      "Õ": 145,
      "Ö": 146,
      "×": 147,
      "Ø": 148,
      "Ù": 149,
      "Ú": 150,
      "Û": 151,
      "Ü": 152,
      "Ý": 153,
      "Þ": 154,
      "ß": 155,
      "à": 156,
      "á": 157,
      "â": 158,
      "ã": 159,
      "ä": 160,
      "å": 161,
      "æ": 162,
      "ç": 163,
      "è": 164,
      "é": 165,
      "ê": 166,
      "ë": 167,
      "ì": 168,
      "í": 169,
      "î": 170,
      "ï": 171,
      "ð": 172,
      "ñ": 173,
      "ò": 174,
      "ó": 175,
      "ô": 176,
      "õ": 177,
      "ö": 178,
      "÷": 179,
      "ø": 180,
      "ù": 181,
      "ú": 182,
      "û": 183,
      "ü": 184,
      "ý": 185,
      "þ": 186,
      "ÿ": 187,
      "Ā": 188,
      "ā": 189,
      "Ă": 190,
      "ă": 191,
      "Ą": 192,
      "ą": 193,
      "Ć": 194,
      "ć": 195,
      "Ĉ": 196,
      "ĉ": 197,
      "Ċ": 198,
      "ċ": 199,
      "Č": 200,
      "č": 201,
      "Ď": 202,
      "ď": 203,
      "Đ": 204,
      "đ": 205,
      "Ē": 206,
      "ē": 207,
      "Ĕ": 208,
      "ĕ": 209,
      "Ė": 210,
      "ė": 211,
      "Ę": 212,
      "ę": 213,
      "Ě": 214,
      "ě": 215,
      "Ĝ": 216,
      "ĝ": 217,
      "Ğ": 218,
      "ğ": 219,
      "Ġ": 220,
      "ġ": 221,
      "Ģ": 222,
      "ģ": 223,
      "Ĥ": 224,
      "ĥ": 225,
      "Ħ": 226,
      "ħ": 227,
      "Ĩ": 228,
      "ĩ": 229,
      "Ī": 230,
      "ī": 231,
      "Ĭ": 232,
      "ĭ": 233,
      "Į": 234,
      "į": 235,
      "İ": 236,
      "ı": 237,
      "Ĳ": 238,
      "ĳ": 239,
      "Ĵ": 240,
      "ĵ": 241,
      "Ķ": 242,
      "ķ": 243,
      "ĸ": 244,
      "Ĺ": 245,
      "ĺ": 246,
      "Ļ": 247,
      "ļ": 248,
      "Ľ": 249,
      "ľ": 250,
      "Ŀ": 251,
      "ŀ": 252,
      "Ł": 253,
      "ł": 254,
      "Ń": 255,
      "ĠÄ": 256,
      "ĠÄł": 257,
      "Ġi": 258,
      "Ġa": 259,
      "Ġo": 260,
      "Ġe": 261,
      "er": 262,
      "re": 263,
      "on": 264,
      "Ġu": 265,
      "in": 266,
      "st": 267,
      "Ġin": 268,
      "ĠÄłc": 269,
      "Ġr": 270,
      "le": 271,
      "nt": 272,
      "ĠÄłs": 273,
      "Ġat": 274,
      "ed": 275,
      "Ġs": 276,
      "es": 277,
      "al": 278,
      "ĠÄłp": 279,
      "Ġc": 280,
      "ar": 281,
      "Ġp": 282,
      "ion": 283,
      "an": 284,
      "ing": 285,
      "or": 286,
      "ĠÄłd": 287,
      "Ġl": 288,
      "ĠÄłS": 289,
      "at": 290,
      "Ġan": 291,
      "Ġt": 292,
      "ĠÄłC": 293,
      "Ġm": 294,
      "Ġit": 295,
      "Ġing": 296,
      "Ġer": 297,
      "en": 298,
      "ĠÄłt": 299,
      "Ġic": 300,
      "ĠÄła": 301,
      "Ġar": 302,
      "ĠÄłb": 303,
      "ĠÄłm": 304,
      "ct": 305,
      "ro": 306,
      "Ġb": 307,
      "Ġh": 308,
      "Ġor": 309,
      "ĠÄłf": 310,
      "Ġen": 311,
      "ĠÄłre": 312,
      "ent": 313,
      "Ġed": 314,
      "ĠÄłP": 315,
      "ll": 316,
      "Ġre": 317,
      "ĠÄłA": 318,
      "ĠÄłM": 319,
      "ss": 320,
      "ic": 321,
      "Ġv": 322,
      "it": 323,
      "un": 324,
      "ĠÄłB": 325,
      "om": 326,
      "Ġn": 327,
      "ĠÃ": 328,
      "Ġg": 329,
      "Ġy": 330,
      "ĠÄłe": 331,
      "ĠA": 332,
      "Ġf": 333,
      "ĠÄłin": 334,
      "ĠÄłR": 335,
      "Ġon": 336,
      "Ġis": 337,
      "Ġal": 338,
      "ĠÄłT": 339,
      "ĠÄłh": 340,
      "ĠÄłD": 341,
      "Ġle": 342,
      "is": 343,
      "ur": 344,
      "ve": 345,
      "ch": 346,
      "ĠS": 347,
      "ĠE": 348,
      "et": 349,
      "ĠÄłg": 350,
      "ra": 351,
      "ut": 352,
      "--": 353,
      "ĠÄłH": 354,
      "ce": 355,
      "ĠI": 356,
      "ĠÄłF": 357,
      "ĠÄłL": 358,
      "ĠÄłl": 359,
      "us": 360,
      "Ġw": 361,
      "el": 362,
      "Ġd": 363,
      "ĠÄłw": 364,
      "ĠÄłG": 365,
      "Ġas": 366,
      "ĠC": 367,
      "il": 368,
      "ol": 369,
      "ĠÄłE": 370,
      "Ġid": 371,
      "im": 372,
      "ck": 373,
      "ers": 374,
      "ĠO": 375,
      "Ġam": 376,
      "ĠÄłcon": 377,
      "ĠP": 378,
      "Ġes": 379,
      "Ġag": 380,
      "ĠÄło": 381,
      "Ġk": 382,
      "ĠÄłst": 383,
      "Ġol": 384,
      "qu": 385,
      "Ġro": 386,
      "Ġ1": 387,
      "ĠÄłn": 388,
      "Ġly": 389,
      "gh": 390,
      "ĠT": 391,
      "ĠÄłI": 392,
      "Ġab": 393,
      "ĠÄłW": 394,
      "Ġation": 395,
      "Ġ2": 396,
      "ĠÄłN": 397,
      "Ġet": 398,
      "Ġra": 399,
      "ri": 400,
      "Ġil": 401,
      "Ġot": 402,
      "ation": 403,
      "ul": 404,
      "ĠR": 405,
      "ĠM": 406,
      "Ġri": 407,
      "Ġur": 408,
      "em": 409,
      "Ġst": 410,
      "Ġad": 411,
      "pp": 412,
      "ly": 413,
      "ĠD": 414,
      "am": 415,
      "ĠÄłun": 416,
      "Ġent": 417,
      "ĠB": 418,
      "Ġus": 419,
      "ot": 420,
      "ĠÄłv": 421,
      "ĠÄłde": 422,
      "Ġion": 423,
      "Ġers": 424,
      "ad": 425,
      "Ġim": 426,
      "Ġ3": 427,
      "ĠF": 428,
      "ĠÄłK": 429,
      "Ġch": 430,
      "Ġist": 431,
      "pt": 432,
      "Ġum": 433,
      "Ġ6": 434,
      "ĠL": 435,
      "Ġom": 436,
      "ff": 437,
      "id": 438,
      "Ġos": 439,
      "ĠÄłex": 440,
      "Ġul": 441,
      "Ġ4": 442,
      "ĠÄłpro": 443,
      "ĠÂ": 444,
      "..": 445,
      "Ġel": 446,
      "Ġ7": 447,
      "Ġun": 448,
      "ĠÄłO": 449,
      "ir": 450,
      "Ġant": 451,
      "Ġak": 452,
      "==": 453,
      "ow": 454,
      "Ġif": 455,
      "Ġut": 456,
      "ĠÄłV": 457,
      "ver": 458,
      "and": 459,
      "um": 460,
      "Ġ5": 461,
      "Ġ0": 462,
      "ĠÄłcom": 463,
      "ght": 464,
      "Ġig": 465,
      "Ġac": 466,
      "red": 467,
      "Ġate": 468,
      "ect": 469,
      "ĠÄłJ": 470,
      "----": 471,
      "as": 472,
      "od": 473,
      "ĠU": 474,
      "ĠÄłr": 475,
      "ĠÄłsu": 476,
      "Ġir": 477,
      "ter": 478,
      "¢Ä": 479,
      "ĠN": 480,
      "ĠH": 481,
      "Ġem": 482,
      "Ġow": 483,
      "ĠÄłdis": 484,
      "ĠG": 485,
      "ort": 486,
      "he": 487,
      "Ġz": 488,
      "ay": 489,
      "Ġiz": 490,
      "ĠÄłsp": 491,
      "ig": 492,
      "ess": 493,
      "Ġest": 494,
      "Ġend": 495,
      "res": 496,
      "her": 497,
      "£Ä": 498,
      "ec": 499,
      "Ġiv": 500,
      "Ġain": 501,
      "Ġ8": 502,
      "ĠW": 503,
      "Ġ9": 504,
      "Ġop": 505,
      "ĠÄłco": 506,
      "ab": 507,
      "Ġap": 508,
      "Ġall": 509,
      "ies": 510,
      "ity": 511,
      "ge": 512,
      "Ġment": 513,
      "ĠÃ£Ä": 514,
      "ist": 515,
      "ĠÄłsh": 516,
      "Ġay": 517,
      "ive": 518,
      "pl": 519,
      "Ġoc": 520,
      "Ġand": 521,
      "und": 522,
      "ĠÄłch": 523,
      "ud": 524,
      "ous": 525,
      "ĠÄłU": 526,
      "est": 527,
      "ĠÄłen": 528,
      "Ġod": 529,
      "Ġive": 530,
      "Ġter": 531,
      "ĠÄłSt": 532,
      "__": 533,
      "os": 534,
      "Ġia": 535,
      "Ġou": 536,
      "Ġth": 537,
      "ĠÄład": 538,
      "Ġver": 539,
      "Ġib": 540,
      "og": 541,
      "Ġog": 542,
      "art": 543,
      "Ġens": 544,
      "Ġable": 545,
      "Ġse": 546,
      "Ġical": 547,
      "Ġill": 548,
      "Ġated": 549,
      "Ġast": 550,
      "ĠV": 551,
      "Ġip": 552,
      "Ġian": 553,
      "Ġx": 554,
      "Ġie": 555,
      "Ġard": 556,
      "Ġj": 557,
      "ĠÄłCh": 558,
      "ĠÄłRe": 559,
      "op": 560,
      "ĥÄ": 561,
      "Ġies": 562,
      "ate": 563,
      "ĠÄłan": 564,
      "ard": 565,
      "ip": 566,
      "ĠÄłim": 567,
      "Ġav": 568,
      "Ġhe": 569,
      "Ġity": 570,
      "cc": 571,
      "ĠÄłcl": 572,
      "all": 573,
      "Ġpl": 574,
      "ĠÄłse": 575,
      "ĠÄłIn": 576,
      "ial": 577,
      "Ġang": 578,
      "Ġions": 579,
      "Ġour": 580,
      "ĠÄłsc": 581,
      "Ġce": 582,
      "ĠÄłj": 583,
      "ĠÄłres": 584,
      "iv": 585,
      "th": 586,
      "orm": 587,
      "ĠÄłk": 588,
      "ÃĥÄ": 589,
      "Ġcl": 590,
      "ĠÄłtr": 591,
      "ĠÄłle": 592,
      "per": 593,
      "ĠÄłcont": 594,
      "====": 595,
      "19": 596,
      "der": 597,
      "Ġct": 598,
      "Ġish": 599,
      "Ġ)": 600,
      "ans": 601,
      "Ġors": 602,
      "Ġage": 603,
      "ie": 604,
      "Ġine": 605,
      "ĠÄłcomp": 606,
      "Ġqu": 607,
      "Ġach": 608,
      "Ġry": 609,
      "ĠÄłpre": 610,
      "**": 611,
      "les": 612,
      "ust": 613,
      "Ġure": 614,
      "ant": 615,
      "ib": 616,
      "ĠJ": 617,
      "ĠK": 618,
      "Ġess": 619,
      "Ġick": 620,
      "Ġations": 621,
      "ment": 622,
      "ĠÄłSh": 623,
      "ĠÄłCon": 624,
      "ĠÄłth": 625,
      "ub": 626,
      "Ġous": 627,
      "oc": 628,
      "ph": 629,
      "ĠÄłro": 630,
      "Ġight": 631,
      "Ġob": 632,
      "led": 633,
      "Ġact": 634,
      "ine": 635,
      "Ġru": 636,
      "Ġort": 637,
      "ag": 638,
      "Ġial": 639,
      "Ġack": 640,
      "Ġings": 641,
      "....": 642,
      "ok": 643,
      "Ġary": 644,
      "ack": 645,
      "ĠÄłpl": 646,
      "ĠÄłne": 647,
      "ĠÄłem": 648,
      "Ġance": 649,
      "ĠÄłfl": 650,
      "Ġout": 651,
      "Ġud": 652,
      "Ġator": 653,
      "Ġart": 654,
      "ĠÃ¢Ä": 655,
      "ult": 656,
      "ĠÄłar": 657,
      "Ġok": 658,
      "ions": 659,
      "Ġanc": 660,
      "--------": 661,
      "ast": 662,
      "ou": 663,
      "Ġ\"": 664,
      "ĠÄłÃ": 665,
      "Ġare": 666,
      "Ġans": 667,
      "Ġ00": 668,
      "ill": 669,
      "ure": 670,
      "ĠÄłbl": 671,
      "ĠÄłhe": 672,
      "Ġph": 673,
      "Ġust": 674,
      "ass": 675,
      "ĠY": 676,
      "Ġating": 677,
      "Ġpt": 678,
      "Ġper": 679,
      "ĠÄłrec": 680,
      "Ġve": 681,
      "Ġne": 682,
      "ĠÄłsub": 683,
      "Ġass": 684,
      "Ġock": 685,
      "Ġpp": 686,
      "end": 687,
      "ĠÄłapp": 688,
      "Ġred": 689,
      "Ġres": 690,
      "ĠÄłint": 691,
      "ru": 692,
      "ĠÄłal": 693,
      "Ġov": 694,
      "ĠÄłbe": 695,
      "ore": 696,
      "Ġll": 697,
      "Ġher": 698,
      "Ġord": 699,
      "Ġone": 700,
      "ain": 701,
      "ĠÄłY": 702,
      "Ġress": 703,
      "ac": 704,
      "ĠÄłdi": 705,
      "ction": 706,
      "Ġash": 707,
      "Ġally": 708,
      "Ġear": 709,
      "av": 710,
      "ĠÄłat": 711,
      "ĠÄłqu": 712,
      "Ġaw": 713,
      "Ġell": 714,
      "Ġub": 715,
      "Ġual": 716,
      "ĠÄłPro": 717,
      "ĠÄłinc": 718,
      "Ġah": 719,
      "Ġau": 720,
      "ĠÄłinter": 721,
      "Ġide": 722,
      "ĠÃ£Ä¥": 723,
      "ight": 724,
      "Ġik": 725,
      "ĠÄłper": 726,
      "ĠÄłSp": 727,
      "ens": 728,
      "ĠÄłDe": 729,
      "Ġber": 730,
      "du": 731,
      "ated": 732,
      "ĠÃĥ": 733,
      "Ġge": 734,
      "Ġail": 735,
      "Ġore": 736,
      "Ġons": 737,
      "Ġue": 738,
      "ĠÄłCom": 739,
      "ap": 740,
      "Ġ.": 741,
      "ĠÄłab": 742,
      "ĠÄłAn": 743,
      "ical": 744,
      "ry": 745,
      "Ġaz": 746,
      "ons": 747,
      "int": 748,
      "ĠÄłsl": 749,
      "Ġates": 750,
      "ĠÄłpo": 751,
      "ary": 752,
      "Ġice": 753,
      "Ġics": 754,
      "ia": 755,
      "ĠÄłimp": 756,
      "ĠÄłor": 757,
      "Ġins": 758,
      "Ġolog": 759,
      "____": 760,
      "ks": 761,
      "ĠÄłu": 762,
      "Ġug": 763,
      "Ġcom": 764,
      "ĠÄłass": 765,
      "ĠÄłAl": 766,
      "ĠÄłAr": 767,
      "Ġism": 768,
      "ĠÄłLe": 769,
      "Ġke": 770,
      "our": 771,
      "ont": 772,
      "Ġind": 773,
      "ĠÄłCl": 774,
      "Ġitt": 775,
      "ĠÄłte": 776,
      "Ġrib": 777,
      "if": 778,
      "Ġals": 779,
      "ĠÄłcons": 780,
      "own": 781,
      "ign": 782,
      "are": 783,
      "lect": 784,
      "ĠÄłph": 785,
      "ĠÄłacc": 786,
      "Ġamp": 787,
      "Ġ19": 788,
      "oy": 789,
      "¥ÃĥÄ": 790,
      "Ġile": 791,
      "Ġits": 792,
      "Ġition": 793,
      "ĠÄłins": 794,
      "able": 795,
      "¥ÃĥÄ¤": 796,
      "Ġep": 797,
      "Ġte": 798,
      "ĠÄłind": 799,
      "ĠÄłEx": 800,
      "Ġets": 801,
      "iss": 802,
      "ÅĤ": 803,
      "Ġace": 804,
      "Ġew": 805,
      "Ġsh": 806,
      "ĠÄłpr": 807,
      "Ġpe": 808,
      "ĠÄłam": 809,
      "ĠÄłinf": 810,
      "Ġles": 811,
      "ĠSt": 812,
      "Ġire": 813,
      "Ġman": 814,
      "ĠER": 815,
      "rad": 816,
      "ĠÄłob": 817,
      "ĠÄłtrans": 818,
      "ob": 819,
      "Ġup": 820,
      "Ġts": 821,
      "Ġict": 822,
      "ĠÄłwe": 823,
      "ĠÄłover": 824,
      "##": 825,
      "//": 826,
      "ire": 827,
      "ĠÄłZ": 828,
      "Ġere": 829,
      "Ġint": 830,
      "ĠÄłcr": 831,
      "Ġars": 832,
      "Ġise": 833,
      "ĠÄłTh": 834,
      "Ġwe": 835,
      "ĠÄłcomm": 836,
      "Ġite": 837,
      "Ġled": 838,
      "ĠÄłdisc": 839,
      "ĠÃ£Ä¤": 840,
      "act": 841,
      "age": 842,
      "Ġix": 843,
      "ind": 844,
      "Ġath": 845,
      "Ġative": 846,
      "Ġren": 847,
      "Ġake": 848,
      "ĠÄłatt": 849,
      "00": 850,
      "Ġ'": 851,
      "Ġious": 852,
      "ark": 853,
      "ĠÄłref": 854,
      "Ġful": 855,
      "Ġists": 856,
      "Ġific": 857,
      "ak": 858,
      "ÃĤ": 859,
      "Ġio": 860,
      "Ġex": 861,
      "ond": 862,
      "Ġps": 863,
      "ord": 864,
      "ence": 865,
      "ĠÄłman": 866,
      "ĠÄłrep": 867,
      "ĠÄłout": 868,
      "ĠÄłdef": 869,
      "ft": 870,
      "ĠÄłSc": 871,
      "Ġting": 872,
      "Ġory": 873,
      "ĠÄłAd": 874,
      "ĠAT": 875,
      "Ġff": 876,
      "Ġks": 877,
      "Ġult": 878,
      "ÃĥÄ¥ÃĥÄ¤": 879,
      "ep": 880,
      "ost": 881,
      "ood": 882,
      "ĠX": 883,
      "Ġapp": 884,
      "ert": 885,
      "Ġric": 886,
      "ĠÄłsw": 887,
      "ĠÄłdes": 888,
      "Ġling": 889,
      "ĠÄłto": 890,
      "Ġenc": 891,
      "Ġence": 892,
      "ents": 893,
      "ĠAR": 894,
      "old": 895,
      "ĠÄłQ": 896,
      "Ġats": 897,
      "Ġong": 898,
      "Ġlet": 899,
      "Ġrow": 900,
      "Ġments": 901,
      "Ã¢Ä": 902,
      "Ġ,": 903,
      "Ġound": 904,
      "ĠÄłsur": 905,
      "Ġpr": 906,
      "Ġann": 907,
      "ĠÄłbo": 908,
      "ĠÄłrel": 909,
      "ĠES": 910,
      "Ġade": 911,
      "ĠÄłdec": 912,
      "ĠÄłexp": 913,
      "Ġier": 914,
      "ĠÄłcor": 915,
      "ĠÄłbr": 916,
      "ĠÄłwh": 917,
      "Ġants": 918,
      "Ġized": 919,
      "========": 920,
      "ull": 921,
      "ĠÄły": 922,
      "erv": 923,
      "ĠÄłpar": 924,
      "Ġland": 925,
      "Ġert": 926,
      "Ġbo": 927,
      "Ġven": 928,
      "ĠÄłBl": 929,
      "ish": 930,
      "ility": 931,
      "ations": 932,
      "Ġose": 933,
      "Ġign": 934,
      "Ġ-": 935,
      "Ġale": 936,
      "Ġost": 937,
      "Ġci": 938,
      "Ġpro": 939,
      "ĠÄłtra": 940,
      "ĠÄłBe": 941,
      "ĠÃ¥": 942,
      "ĠÄłTr": 943,
      "ĠIN": 944,
      "eld": 945,
      "ĠÄłconf": 946,
      "Ġ/": 947,
      "ĠQ": 948,
      "ĠÄłent": 949,
      "Ġiss": 950,
      "Ġai": 951,
      "Ġrit": 952,
      "Ġport": 953,
      "Ġty": 954,
      "ĠÄłac": 955,
      "ick": 956,
      "ĠÃĤ": 957,
      "ĠÄłgl": 958,
      "ram": 959,
      "ely": 960,
      "Ġumb": 961,
      "Ġically": 962,
      "Ġ]": 963,
      "Ġair": 964,
      "reat": 965,
      "ance": 966,
      "ĠÄłfor": 967,
      "ĠÄłreg": 968,
      "Ġys": 969,
      "Ġond": 970,
      "ĠIn": 971,
      "Ġold": 972,
      "ÃĥÄ¥ÃĥÄ¤ÃĥÄ¥ÃĥÄ¤": 973,
      "ian": 974,
      "Ġoy": 975,
      "Ġoll": 976,
      "Ġered": 977,
      "ĠÄłsy": 978,
      "Ġatt": 979,
      "ĠÄłdet": 980,
      "ĠÄłdist": 981,
      "Ġank": 982,
      "ĠÄłrem": 983,
      "ĠÄłPl": 984,
      "ĠÄłBr": 985,
      "Ġning": 986,
      "ract": 987,
      "ild": 988,
      "****": 989,
      "ict": 990,
      "ne": 991,
      "oad": 992,
      "Ġ=": 993,
      "Ġures": 994,
      "ĠÄłSe": 995,
      "row": 996,
      "Ġvers": 997,
      "ĠEN": 998,
      "ĠÄłgr": 999,
      "ĠÄłgu": 1000,
      "ĠÄłwor": 1001,
      "ĠOR": 1002,
      "Ġents": 1003,
      "ĠÄłUn": 1004,
      "ail": 1005,
      "ug": 1006,
      "Ġ(": 1007,
      "Ġec": 1008,
      "ress": 1009,
      "Ġull": 1010,
      "Ġuck": 1011,
      "Ġink": 1012,
      "Ġsc": 1013,
      "Ġco": 1014,
      "Ġane": 1015,
      "Ġhip": 1016,
      "ith": 1017,
      "ution": 1018,
      "ĠCh": 1019,
      "Ġ20": 1020,
      "ĠÄłNe": 1021,
      "ĠÄłdep": 1022,
      "ide": 1023,
      "Ġifi": 1024,
      "Ġ?": 1025,
      "Ġater": 1026,
      "Ġck": 1027,
      "Ġple": 1028,
      "ĠÄłCo": 1029,
      "Ġities": 1030,
      "ĠÄłag": 1031,
      "ĠÄłme": 1032,
      "Ġbe": 1033,
      "ĠÄłret": 1034,
      "Ġner": 1035,
      "Ġness": 1036,
      "ĠÄłev": 1037,
      "ĠÄłinv": 1038,
      "Ġless": 1039,
      "vel": 1040,
      "Ġush": 1041,
      "aw": 1042,
      "ious": 1043,
      "Ġoss": 1044,
      "Ġect": 1045,
      "ĠÄłcol": 1046,
      "Ġron": 1047,
      "Ġsp": 1048,
      "ĠÄłaut": 1049,
      "Ġhes": 1050,
      "ĠÄłPh": 1051,
      "ĠÄłMar": 1052,
      "Ġway": 1053,
      "Ġame": 1054,
      "ĠÄłext": 1055,
      "¢Ä¶": 1056,
      "eg": 1057,
      "ue": 1058,
      "ĠÄłra": 1059,
      "Ġipp": 1060,
      "nter": 1061,
      "ĠÄłsk": 1062,
      "Ġters": 1063,
      "Ġmer": 1064,
      "ĠÄłant": 1065,
      "Ġvent": 1066,
      "ĠÄłha": 1067,
      "raph": 1068,
      "ĠÄłHe": 1069,
      "ĠÄłunder": 1070,
      "Ġible": 1071,
      "iew": 1072,
      "ON": 1073,
      "ject": 1074,
      "min": 1075,
      "ock": 1076,
      "rit": 1077,
      "ual": 1078,
      "yp": 1079,
      "ĠÄłca": 1080,
      "ĠÄłsm": 1081,
      "ors": 1082,
      "Ġited": 1083,
      "Ġern": 1084,
      "ĠÄłfe": 1085,
      "ĠÄłEn": 1086,
      "ef": 1087,
      "ik": 1088,
      "tt": 1089,
      "Â¯": 1090,
      "Ġ!": 1091,
      "Ġ:": 1092,
      "Ġied": 1093,
      "ĠÄłso": 1094,
      "ĠÄłpres": 1095,
      "ĠÄłdo": 1096,
      "Ġmin": 1097,
      "ĠÄłmet": 1098,
      "ĠÄłAm": 1099,
      "ĠÄłMc": 1100,
      "ition": 1101,
      "ĠÄłinst": 1102,
      "ĠÄłstr": 1103,
      "Ġott": 1104,
      "Ġund": 1105,
      "........": 1106,
      "Ġ>": 1107,
      "Ġax": 1108,
      "Ġinal": 1109,
      "Ġatch": 1110,
      "ĠÄłpart": 1111,
      "Ġced": 1112,
      "ĠÄłas": 1113,
      "Ġble": 1114,
      "ĠAN": 1115,
      "ption": 1116,
      "Ġels": 1117,
      "Ġays": 1118,
      "ĠÄładv": 1119,
      "ĠÄłup": 1120,
      "lic": 1121,
      "Ġnt": 1122,
      "Ġines": 1123,
      "ath": 1124,
      "Ġarm": 1125,
      "Ġorn": 1126,
      "ĠÄłrev": 1127,
      "ĠAL": 1128,
      "ĠÄłgen": 1129,
      "ĠÄłFl": 1130,
      "Ġase": 1131,
      "Ġages": 1132,
      "Ġtern": 1133,
      "ys": 1134,
      "Ġ\\": 1135,
      "ĠÄłX": 1136,
      "Ġiff": 1137,
      "Ġaf": 1138,
      "Ġave": 1139,
      "Ġoot": 1140,
      "Ġuff": 1141,
      "ĠÄłche": 1142,
      "Ġrom": 1143,
      "Ġcon": 1144,
      "Ġld": 1145,
      "Ġerv": 1146,
      "Ġich": 1147,
      "Ġark": 1148,
      "Ġyn": 1149,
      "ĠIS": 1150,
      "Ġward": 1151,
      "Ġram": 1152,
      "ĠRE": 1153,
      "Ġime": 1154,
      "Ġome": 1155,
      "ĠÄłexpl": 1156,
      "ount": 1157,
      "ER": 1158,
      "igh": 1159,
      "ĠÄłve": 1160,
      "ong": 1161,
      "ĠÄłcur": 1162,
      "ĠÄłdem": 1163,
      "Ġted": 1164,
      "Ġmed": 1165,
      "Ġarg": 1166,
      "ĠÄłmin": 1167,
      "Ġeng": 1168,
      "Ġvel": 1169,
      "Ġnd": 1170,
      "Ġform": 1171,
      "urn": 1172,
      "ĠIT": 1173,
      "ĠÄłGu": 1174,
      "Ġ50": 1175,
      "Ġown": 1176,
      "ĠÃ¢Ä¢": 1177,
      "18": 1178,
      "ace": 1179,
      "ber": 1180,
      "ex": 1181,
      "se": 1182,
      "Ġ[": 1183,
      "Ġium": 1184,
      "Ġson": 1185,
      "Ġms": 1186,
      "ĠÄłthe": 1187,
      "ĠÄłbu": 1188,
      "ĠÄłmod": 1189,
      "Ġby": 1190,
      "Ġorm": 1191,
      "Ġree": 1192,
      "Ġgg": 1193,
      "Ġger": 1194,
      "ĠIC": 1195,
      "Ġdu": 1196,
      "Ġational": 1197,
      "Ġ01": 1198,
      "----------------": 1199,
      "ÃĤÅĤ": 1200,
      "Ġified": 1201,
      "ah": 1202,
      "ell": 1203,
      "Â©": 1204,
      "Ġq": 1205,
      "Ġiqu": 1206,
      "Ġee": 1207,
      "Ġeg": 1208,
      "ren": 1209,
      "Ġues": 1210,
      "Ġured": 1211,
      "ĠÄłcar": 1212,
      "Ġso": 1213,
      "Ġcc": 1214,
      "ĠÄłCol": 1215,
      "Ġith": 1216,
      "ĠÄłfr": 1217,
      "ĠÄłrest": 1218,
      "ĠAS": 1219,
      "Ġft": 1220,
      "Ġony": 1221,
      "vest": 1222,
      "ĠÄłoff": 1223,
      "Ġ10": 1224,
      "Ġize": 1225,
      "Ġ80": 1226,
      "ax": 1227,
      "cy": 1228,
      "up": 1229,
      "Ġ+": 1230,
      "Ġove": 1231,
      "Ġood": 1232,
      "Ġef": 1233,
      "ĠÄłpe": 1234,
      "arg": 1235,
      "Ġtt": 1236,
      "Ġton": 1237,
      "ĠÄłbre": 1238,
      "ĠÄłmis": 1239,
      "Ġhed": 1240,
      "ĠÄłfo": 1241,
      "Ġret": 1242,
      "Ġged": 1243,
      "ĠÄłel": 1244,
      "ĠÄłgo": 1245,
      "ĠON": 1246,
      "ĠÄłnot": 1247,
      "ĠÄłIm": 1248,
      "ĠÄłprop": 1249,
      "Ġows": 1250,
      "ĠÃ£Ä£": 1251,
      "ĠÄłend": 1252,
      "Ġount": 1253,
      "Ġction": 1254,
      "gan": 1255,
      "ook": 1256,
      "sy": 1257,
      "Â¦": 1258,
      "Ġiet": 1259,
      "Ġont": 1260,
      "Ġoun": 1261,
      "Ġover": 1262,
      "Ġuc": 1263,
      "ĠÄłcal": 1264,
      "ĠÄłpol": 1265,
      "ĠÄłCar": 1266,
      "Ġitch": 1267,
      "ĠÄłmon": 1268,
      "Ġbs": 1269,
      "ĠAC": 1270,
      "Ġfl": 1271,
      "Ġley": 1272,
      "ĠTh": 1273,
      "ĠÄłWe": 1274,
      "Ġett": 1275,
      "rib": 1276,
      "Ġots": 1277,
      "Ġ70": 1278,
      "ĠÄłsupp": 1279,
      "ĠÄłspec": 1280,
      "Ġograph": 1281,
      "ĠÄłemb": 1282,
      "ient": 1283,
      "ield": 1284,
      "pect": 1285,
      "Ġient": 1286,
      "Ġoul": 1287,
      "ere": 1288,
      "one": 1289,
      "Ġinc": 1290,
      "ĠÄłsa": 1291,
      "ĠÄłdr": 1292,
      "ĠÄłdel": 1293,
      "ĠÄłSu": 1294,
      "Ġtr": 1295,
      "ĠÄłter": 1296,
      "Ġarch": 1297,
      "ĠÄłAb": 1298,
      "Ġves": 1299,
      "ĠÄłTe": 1300,
      "ĠÄłFr": 1301,
      "ĠÄłconc": 1302,
      "ĠÄłconst": 1303,
      "Ġract": 1304,
      "amp": 1305,
      "Ġ30": 1306,
      "Ġ60": 1307,
      "ĠÄłprot": 1308,
      "Ġaking": 1309,
      "Ġify": 1310,
      "Ġacy": 1311,
      "ĠÄłcou": 1312,
      "20": 1313,
      "uc": 1314,
      "Â½": 1315,
      "Ġ}": 1316,
      "Ġapt": 1317,
      "Ġared": 1318,
      "Ġoo": 1319,
      "Ġek": 1320,
      "Ġuk": 1321,
      "Ġunt": 1322,
      "ĠÄłcan": 1323,
      "ĠÄłpat": 1324,
      "Ġces": 1325,
      "ank": 1326,
      "ork": 1327,
      "Ġlic": 1328,
      "Ġarn": 1329,
      "rop": 1330,
      "Ġbr": 1331,
      "Ġenn": 1332,
      "ĠÄłPr": 1333,
      "ĠÄłMe": 1334,
      "ome": 1335,
      "ĠÄłRes": 1336,
      "Ġised": 1337,
      "Ġidd": 1338,
      "ĠOU": 1339,
      "Ġrop": 1340,
      "Ġ25": 1341,
      "rig": 1342,
      "Ġump": 1343,
      "ĠLE": 1344,
      "Ġular": 1345,
      "ĠÄłOr": 1346,
      "Ġending": 1347,
      "Ġives": 1348,
      "Ġivers": 1349,
      "Ġains": 1350,
      "Ġcept": 1351,
      "ĠÄłkn": 1352,
      "ĠÄłleg": 1353,
      "Ġators": 1354,
      "ruct": 1355,
      "________": 1356,
      "ĠÄłQu": 1357,
      "ces": 1358,
      "ron": 1359,
      "yn": 1360,
      "ĠÄłall": 1361,
      "Ġox": 1362,
      "Ġook": 1363,
      "Ġatic": 1364,
      "ĠÄłpur": 1365,
      "ang": 1366,
      "Ġlin": 1367,
      "ĠÄłtw": 1368,
      "ĠÄłaff": 1369,
      "Ġari": 1370,
      "ĠÃ¦": 1371,
      "ĠAM": 1372,
      "ĠAn": 1373,
      "Ġisc": 1374,
      "ĠÄłDis": 1375,
      "ĠST": 1376,
      "ĠÄłGr": 1377,
      "ĠÄłEm": 1378,
      "ript": 1379,
      "ĠÄłund": 1380,
      "Ġche": 1381,
      "Ġched": 1382,
      "ident": 1383,
      "Ġ40": 1384,
      "ĠÄłprom": 1385,
      "irc": 1386,
      "Ġirt": 1387,
      "Ġization": 1388,
      "ĠÄłenc": 1389,
      "Ġvert": 1390,
      "Ġards": 1391,
      "ĠÄłInd": 1392,
      "ĠÄłCont": 1393,
      "Ġually": 1394,
      "ile": 1395,
      "ugh": 1396,
      "Ġ;": 1397,
      "ern": 1398,
      "Ġuss": 1399,
      "let": 1400,
      "ĠÄłsim": 1401,
      "Ġather": 1402,
      "ĠÄłpred": 1403,
      "ating": 1404,
      "ĠÄłCor": 1405,
      "Ġme": 1406,
      "Ġery": 1407,
      "Ġering": 1408,
      "Ġices": 1409,
      "ĠÄłact": 1410,
      "Ġbl": 1411,
      "ics": 1412,
      "ĠÄłhand": 1413,
      "Ġlect": 1414,
      "Ġider": 1415,
      "ĠPro": 1416,
      "Ġ12": 1417,
      "Ġraw": 1418,
      "Ġoth": 1419,
      "Ġster": 1420,
      "ower": 1421,
      "here": 1422,
      "Ġained": 1423,
      "Ġished": 1424,
      "iber": 1425,
      "Ġances": 1426,
      "ĠÄłÃĤ": 1427,
      "Ġology": 1428,
      "ully": 1429,
      "ix": 1430,
      "iz": 1431,
      "Â¿": 1432,
      "Ġ..": 1433,
      "Ġiver": 1434,
      "Ġired": 1435,
      "Ġaid": 1436,
      "Ġoh": 1437,
      "Ġool": 1438,
      "Ġoff": 1439,
      "Ġored": 1440,
      "Ġev": 1441,
      "Ġinn": 1442,
      "Ġined": 1443,
      "Ġration": 1444,
      "less": 1445,
      "ĠÄłsn": 1446,
      "Ġcy": 1447,
      "Ġcent": 1448,
      "Ġpect": 1449,
      "Ġline": 1450,
      "att": 1451,
      "ater": 1452,
      "Ġmon": 1453,
      "ĠÄłbro": 1454,
      "Ġhen": 1455,
      "ĠÄłfin": 1456,
      "Ġreg": 1457,
      "Ġread": 1458,
      "ĠÄłApp": 1459,
      "ich": 1460,
      "Ġging": 1461,
      "Ġfor": 1462,
      "Ġalk": 1463,
      "uth": 1464,
      "cept": 1465,
      "ĠÄłlo": 1466,
      "ĠÄłwar": 1467,
      "Ġased": 1468,
      "ime": 1469,
      "ĠOS": 1470,
      "ĠÄłocc": 1471,
      "Ġote": 1472,
      "Ġuring": 1473,
      "emb": 1474,
      "Ġadd": 1475,
      "Ġung": 1476,
      "ase": 1477,
      "Ġ99": 1478,
      "####": 1479,
      "sych": 1480,
      "ach": 1481,
      "ov": 1482,
      "~~": 1483,
      "ĠÅ": 1484,
      "Ġigh": 1485,
      "Ġole": 1486,
      "ream": 1487,
      "ĠÄłpers": 1488,
      "Ġler": 1489,
      "ĠÄłSch": 1490,
      "Ġming": 1491,
      "Ġmit": 1492,
      "ĠÄłback": 1493,
      "ĠÄłmed": 1494,
      "round": 1495,
      "Ġback": 1496,
      "Ġhet": 1497,
      "Ġved": 1498,
      "Ġving": 1499,
      "ĠÃ©": 1500,
      "ĠÄłelect": 1501,
      "Ġising": 1502,
      "ĠÄłhar": 1503,
      "ĠEC": 1504,
      "ĠED": 1505,
      "ĠEx": 1506,
      "ĠÄłgra": 1507,
      "Ġde": 1508,
      "Ġases": 1509,
      "ĠCom": 1510,
      "Ġides": 1511,
      "ĠOT": 1512,
      "ĠÄłconv": 1513,
      "Ġ15": 1514,
      "Ġably": 1515,
      "Ġability": 1516,
      "Ġ24": 1517,
      "ĠRe": 1518,
      "Ġurn": 1519,
      "Ġurs": 1520,
      "Ġ75": 1521,
      "Ġakes": 1522,
      "Ġift": 1523,
      "ĠÄłsuper": 1524,
      "ĠÄłcoll": 1525,
      "Ġense": 1526,
      "Ġians": 1527,
      "ĠÄłComm": 1528,
      "////": 1529,
      "Ã¢Ä¢Ä¶": 1530,
      "form": 1531,
      "Ġ_": 1532,
      "Ġ{": 1533,
      "ĠÄłer": 1534,
      "ĠÄłed": 1535,
      "Ġeb": 1536,
      "ins": 1537,
      "leg": 1538,
      "Ġature": 1539,
      "Ġsu": 1540,
      "Ġsec": 1541,
      "ĠÄłpri": 1542,
      "ĠÄłSl": 1543,
      "ĠÄłSy": 1544,
      "Ġany": 1545,
      "ĠÄłap": 1546,
      "ĠÄłmar": 1547,
      "Ġene": 1548,
      "Ġreat": 1549,
      "ĠÄłMan": 1550,
      "ities": 1551,
      "ĠÄłBar": 1552,
      "Ġget": 1553,
      "ĠÄłRec": 1554,
      "Ġality": 1555,
      "ĠSp": 1556,
      "ĠET": 1557,
      "use": 1558,
      "Ġasc": 1559,
      "Ġroll": 1560,
      "Ġ11": 1561,
      "Ġ16": 1562,
      "Ġ18": 1563,
      "Ġ29": 1564,
      "ĠÄłvis": 1565,
      "Ġunk": 1566,
      "Ġower": 1567,
      "ĠÄłdisp": 1568,
      "ploy": 1569,
      "ĠÄłchar": 1570,
      "Ġaster": 1571,
      "Ġ000": 1572,
      "aim": 1573,
      "oint": 1574,
      "ric": 1575,
      "Ġ%": 1576,
      "Ġ*": 1577,
      "ĠÄłir": 1578,
      "Ġien": 1579,
      "Ġoid": 1580,
      "ret": 1581,
      "rect": 1582,
      "Ġination": 1583,
      "ĠÄłcirc": 1584,
      "Ġris": 1585,
      "ĠÄłsec": 1586,
      "Ġss": 1587,
      "Ġsel": 1588,
      "Ġput": 1589,
      "Ġital": 1590,
      "Ġitor": 1591,
      "Ġitions": 1592,
      "ĠÄłmot": 1593,
      "Ġories": 1594,
      "ĠÄłfre": 1595,
      "ĠÄłfil": 1596,
      "ĠÄłfore": 1597,
      "ĠÄłred": 1598,
      "ĠÄłPre": 1599,
      "Ġrem": 1600,
      "ĠÄłAs": 1601,
      "ĠÄłAss": 1602,
      "icip": 1603,
      "Ġval": 1604,
      "Ġvis": 1605,
      "ĠÃ¢": 1606,
      "ĠÃ§": 1607,
      "Ġyl": 1608,
      "Ġyr": 1609,
      "Ġying": 1610,
      "ĠÄłest": 1611,
      "ĠAl": 1612,
      "ĠÄłhum": 1613,
      "ĠSh": 1614,
      "ĠID": 1615,
      "Ġder": 1616,
      "ĠÄłGl": 1617,
      "ĠÄłcond": 1618,
      "Ġ14": 1619,
      "ĠÄłIs": 1620,
      "Ġ27": 1621,
      "Ġily": 1622,
      "ular": 1623,
      "ĠÄłvol": 1624,
      "Ġional": 1625,
      "Ġ33": 1626,
      "Ġomet": 1627,
      "ĠÄłprof": 1628,
      "ĠÄłprov": 1629,
      "Ġute": 1630,
      "ĠÄłspe": 1631,
      "Ġended": 1632,
      "Ġoph": 1633,
      "ĠÄładd": 1634,
      "Ġject": 1635,
      "ĠÄłann": 1636,
      "Ġclud": 1637,
      "ĠÄłneg": 1638,
      "ĠÄłÃ¢Ä": 1639,
      "Ġribut": 1640,
      "con": 1641,
      "ee": 1642,
      "oo": 1643,
      "ĠZ": 1644,
      "Ġ--": 1645,
      "ĠÄłes": 1646,
      "ĠÄłill": 1647,
      "Ġever": 1648,
      "Ġina": 1649,
      "Ġral": 1650,
      "ĠÄłsol": 1651,
      "Ġatter": 1652,
      "Ġsy": 1653,
      "ĠÄłpass": 1654,
      "ory": 1655,
      "Ġlish": 1656,
      "ĠÄłSw": 1657,
      "ĠÄłCr": 1658,
      "ĠÄłChe": 1659,
      "Ġmy": 1660,
      "Ġiting": 1661,
      "ĠÄław": 1662,
      "ĠÄłbel": 1663,
      "Ġbor": 1664,
      "Ġhing": 1665,
      "ĠÄłPar": 1666,
      "ice": 1667,
      "ite": 1668,
      "Ġng": 1669,
      "Ġgo": 1670,
      "ĠAD": 1671,
      "ĠAd": 1672,
      "Ġfully": 1673,
      "Ġald": 1674,
      "Ġalt": 1675,
      "Ġleg": 1676,
      "che": 1677,
      "chn": 1678,
      "raft": 1679,
      "Ġask": 1680,
      "ĠÄłEl": 1681,
      "Ġ13": 1682,
      "Ġ17": 1683,
      "ĠÄłWh": 1684,
      "Ġ28": 1685,
      "Ġild": 1686,
      "Ġility": 1687,
      "ement": 1688,
      "Ġently": 1689,
      "ĠÄłdev": 1690,
      "Ġches": 1691,
      "ffic": 1692,
      "Ġulation": 1693,
      "Ġ45": 1694,
      "ĠÄłcompl": 1695,
      "Ġement": 1696,
      "Ġender": 1697,
      "Ġough": 1698,
      "ĠÄłanal": 1699,
      "ĠÄłimm": 1700,
      "ĠÄłresp": 1701,
      "ĠÃ¢Ä¸": 1702,
      "Ġpping": 1703,
      "ĠÄłComp": 1704,
      "ically": 1705,
      "Ġification": 1706,
      "Ġency": 1707,
      "================": 1708,
      "air": 1709,
      "ear": 1710,
      "hib": 1711,
      "nal": 1712,
      "nect": 1713,
      "zz": 1714,
      "Äª": 1715,
      "Ġ#": 1716,
      "ĠÄłon": 1717,
      "Ġior": 1718,
      "Ġores": 1719,
      "Ġeal": 1720,
      "Ġinter": 1721,
      "ĠÄłcap": 1722,
      "Ġring": 1723,
      "len": 1724,
      "ĠÄłsign": 1725,
      "Ġately": 1726,
      "Ġset": 1727,
      "Ġcer": 1728,
      "Ġpos": 1729,
      "ĠÄłST": 1730,
      "Ġange": 1731,
      "Ġma": 1732,
      "Ġmiss": 1733,
      "Ġitive": 1734,
      "ĠÄłtre": 1735,
      "ĠÄłtri": 1736,
      "ĠÄłtem": 1737,
      "ĠÄłbi": 1738,
      "ĠÄłmult": 1739,
      "ĠÄłMon": 1740,
      "ĠÃ¤": 1741,
      "Ġgh": 1742,
      "Ġgr": 1743,
      "Ġision": 1744,
      "ĠEn": 1745,
      "ĠÄłHar": 1746,
      "Ġason": 1747,
      "ĠCon": 1748,
      "ĠÄłEd": 1749,
      "Ġident": 1750,
      "ĠÄłstri": 1751,
      "Ġ23": 1752,
      "Ġ26": 1753,
      "Ġeter": 1754,
      "Ġrap": 1755,
      "Ġili": 1756,
      "Ġuse": 1757,
      "ĠÄłdeb": 1758,
      "Ġ66": 1759,
      "Ġosp": 1760,
      "Ġuth": 1761,
      "Ġaint": 1762,
      "Ġaining": 1763,
      "Ġope": 1764,
      "Ġape": 1765,
      "Ġaps": 1766,
      "Ġips": 1767,
      "ĠÄłReg": 1768,
      "ible": 1769,
      "Ġpped": 1770,
      "ĠÄłorgan": 1771,
      "ĠÄłobs": 1772,
      "ium": 1773,
      "oh": 1774,
      "Â£": 1775,
      "Ä¢": 1776,
      "Ġ$": 1777,
      "Ġ<": 1778,
      "ĠÄłart": 1779,
      "Ġaj": 1780,
      "Ġoon": 1781,
      "ĠÄłce": 1782,
      "lement": 1783,
      "ĠÄłsus": 1784,
      "ĠÄłsqu": 1785,
      "Ġlight": 1786,
      "ately": 1787,
      "Ġthe": 1788,
      "ĠÄłCan": 1789,
      "Ġmb": 1790,
      "ĠÄłben": 1791,
      "Ġham": 1792,
      "ĠÄłfun": 1793,
      "ĠÄłform": 1794,
      "ĠÄłfac": 1795,
      "Ġened": 1796,
      "ĠÄłMin": 1797,
      "ĠÃ¨": 1798,
      "ĠAP": 1799,
      "ĠAr": 1800,
      "ĠÄłinvest": 1801,
      "Ġones": 1802,
      "Ġison": 1803,
      "ĠÄłhor": 1804,
      "Ġlement": 1805,
      "ĠCl": 1806,
      "Ġided": 1807,
      "ĠOL": 1808,
      "ĠOW": 1809,
      "Ġaged": 1810,
      "ĠÄłop": 1811,
      "ĠÄłstat": 1812,
      "ĠTr": 1813,
      "ĠÄłInt": 1814,
      "Ġ22": 1815,
      "rist": 1816,
      "ott": 1817,
      "Ġcher": 1818,
      "Ġistic": 1819,
      "Ġ68": 1820,
      "ĠUS": 1821,
      "Ġends": 1822,
      "Ġands": 1823,
      "Ġode": 1824,
      "Ġively": 1825,
      "Ġruct": 1826,
      "Ġoke": 1827,
      "ĠÄłhead": 1828,
      "duct": 1829,
      "ific": 1830,
      "Ġiction": 1831,
      "velop": 1832,
      "ĠÄłgener": 1833,
      "++": 1834,
      "??": 1835,
      "\\\\": 1836,
      "ced": 1837,
      "now": 1838,
      "ther": 1839,
      "ures": 1840,
      "yst": 1841,
      "¶Ä¢": 1842,
      "ĠÄ¤": 1843,
      "ĠÄª": 1844,
      "ĠÄłut": 1845,
      "ĠÄłus": 1846,
      "Ġead": 1847,
      "inc": 1848,
      "ink": 1849,
      "ĠÄłcle": 1850,
      "Ġrim": 1851,
      "Ġatur": 1852,
      "ĠÄłpsych": 1853,
      "Ġcing": 1854,
      "Ġpar": 1855,
      "Ġpor": 1856,
      "ĠÄłdiv": 1857,
      "ĠÄłdown": 1858,
      "Ġlu": 1859,
      "ĠÄłSer": 1860,
      "ĠÄłSur": 1861,
      "ates": 1862,
      "Ġites": 1863,
      "enn": 1864,
      "ener": 1865,
      "ĠÄłtro": 1866,
      "ĠÄłav": 1867,
      "ĠÄłbar": 1868,
      "ĠÄłbas": 1869,
      "ĠÄłmer": 1870,
      "Ġhem": 1871,
      "ĠÄłreb": 1872,
      "ĠÄłPat": 1873,
      "Ġrew": 1874,
      "ĠÄłBre": 1875,
      "ĠÃĥÄ": 1876,
      "ĠÄłequ": 1877,
      "Ġfer": 1878,
      "ĠÄłThe": 1879,
      "ĠEM": 1880,
      "rag": 1881,
      "Ġday": 1882,
      "ĠÄłGo": 1883,
      "ily": 1884,
      "Ġids": 1885,
      "Ġamb": 1886,
      "ĠPh": 1887,
      "Ġagon": 1888,
      "ĠÄłopp": 1889,
      "ĠÄłopt": 1890,
      "Ġky": 1891,
      "ĠÄłste": 1892,
      "Ġrou": 1893,
      "right": 1894,
      "ame": 1895,
      "ĠÄłunf": 1896,
      "Ġential": 1897,
      "Ġimate": 1898,
      "Ġ35": 1899,
      "Ġ65": 1900,
      "Ġomb": 1901,
      "Ġosed": 1902,
      "Ġ48": 1903,
      "ĠÄłprog": 1904,
      "very": 1905,
      "Ġ55": 1906,
      "Ġaces": 1907,
      "asc": 1908,
      "Ġze": 1909,
      "ĠÄłeng": 1910,
      "ĠÄłInst": 1911,
      "ives": 1912,
      "Ġclus": 1913,
      "Ġession": 1914,
      "ĠÄłCons": 1915,
      "Ġights": 1916,
      "ĠÄłÃ¢": 1917,
      "Ġption": 1918,
      "Ġney": 1919,
      "ĠÄłsubs": 1920,
      "ĠÄłdiff": 1921,
      "Ġaugh": 1922,
      "Ġails": 1923,
      "Ġitting": 1924,
      "Ġeren": 1925,
      "ÃĥÄ¥ÃĥÄ¤ÃĥÄ¥ÃĥÄ¤ÃĥÄ¥ÃĥÄ¤ÃĥÄ¥ÃĥÄ¤": 1926,
      "********": 1927,
      "ÃĤÅĤÃĤÅĤ": 1928,
      "Ġould": 1929,
      "Ã¢Ä¢Ä¶Ã¢Ä¢Ä¶": 1930,
      "apt": 1931,
      "ier": 1932,
      "man": 1933,
      "oot": 1934,
      "pre": 1935,
      "por": 1936,
      "ton": 1937,
      "vers": 1938,
      "Ġih": 1939,
      "Ġires": 1940,
      "Ġae": 1941,
      "Ġaun": 1942,
      "Ġaff": 1943,
      "Ġault": 1944,
      "Ġof": 1945,
      "Ġinary": 1946,
      "ĠÄłcre": 1947,
      "ĠÄłcent": 1948,
      "Ġran": 1949,
      "ĠÄłsal": 1950,
      "ĠÄłset": 1951,
      "ĠÄłsum": 1952,
      "ĠÄłport": 1953,
      "ĠÄłpop": 1954,
      "Ġcont": 1955,
      "Ġmet": 1956,
      "Ġitation": 1957,
      "ĠÄłair": 1958,
      "Ġara": 1959,
      "Ġaring": 1960,
      "ĠÄłmil": 1961,
      "ĠÄłmag": 1962,
      "rodu": 1963,
      "Ġha": 1964,
      "ĠÄłPer": 1965,
      "ĠÄłPol": 1966,
      "Ġrent": 1967,
      "ĠÄłAt": 1968,
      "ĠÄłMer": 1969,
      "ĠÄłMed": 1970,
      "Ġview": 1971,
      "iter": 1972,
      "ĠÄłBu": 1973,
      "ĠÄłBro": 1974,
      "omm": 1975,
      "Ġises": 1976,
      "ĠÄłher": 1977,
      "ĠÄłhel": 1978,
      "ĠÄłDo": 1979,
      "ĠSc": 1980,
      "raw": 1981,
      "ĠIG": 1982,
      "ĠIL": 1983,
      "Ġdo": 1984,
      "Ġdown": 1985,
      "ĠCH": 1986,
      "ĠOD": 1987,
      "ĠOM": 1988,
      "Ġolv": 1989,
      "ĠÄłno": 1990,
      "ĠÄłInter": 1991,
      "riend": 1992,
      "ĠRA": 1993,
      "Ġury": 1994,
      "Ġural": 1995,
      "Ġades": 1996,
      "ĠÄłval": 1997,
      "Ġ36": 1998,
      "Ġ64": 1999,
      "Ġune": 2000,
      "ĠÄłOb": 2001,
      "Ġaker": 2002,
      "ĠUR": 2003,
      "ĠUn": 2004,
      "Ġizing": 2005,
      "ecut": 2006,
      "Ġiber": 2007,
      "ĠÄłRep": 2008,
      "Ġplay": 2009,
      "ĠÄłcontin": 2010,
      "Ġatory": 2011,
      "Ġancy": 2012,
      "ĠÄłappro": 2013,
      "ĠÄłbeh": 2014,
      "Ġike": 2015,
      "ĠÄłpost": 2016,
      "Ġological": 2017,
      "ĠÄłdesc": 2018,
      "ĠÄłTrans": 2019,
      "ĠÄłauth": 2020,
      "app": 2021,
      "cess": 2022,
      "ger": 2023,
      "iol": 2024,
      "ld": 2025,
      "ling": 2026,
      "ness": 2027,
      "ox": 2028,
      "oun": 2029,
      "ound": 2030,
      "xt": 2031,
      "Ġ----------------": 2032,
      "ĠÄłi": 2033,
      "ĠÄłz": 2034,
      "Ġij": 2035,
      "Ġiam": 2036,
      "Ġiles": 2037,
      "Ġaut": 2038,
      "Ġales": 2039,
      "Ġoe": 2040,
      "reen": 2041,
      "Ġued": 2042,
      "Ġura": 2043,
      "ĠÄłshe": 2044,
      "ĠÄłsoc": 2045,
      "ĠÄłsens": 2046,
      "Ġcle": 2047,
      "Ġcel": 2048,
      "ĠÄłden": 2049,
      "ĠÄłdom": 2050,
      "Ġload": 2051,
      "atch": 2052,
      "ative": 2053,
      "Ġana": 2054,
      "Ġther": 2055,
      "ĠÄłast": 2056,
      "Ġaries": 2057,
      "ĠÄłbur": 2058,
      "ĠÄłmem": 2059,
      "Ġbre": 2060,
      "Ġball": 2061,
      "Ġorth": 2062,
      "Ġener": 2063,
      "ĠÄłreal": 2064,
      "ĠÄłPe": 2065,
      "Ġrel": 2066,
      "Ġrest": 2067,
      "ĠÄłAg": 2068,
      "ĠÄłMor": 2069,
      "icro": 2070,
      "omp": 2071,
      "Ġned": 2072,
      "Ġnot": 2073,
      "ĠÃ¯": 2074,
      "Ġyp": 2075,
      "ĠÄłTer": 2076,
      "ĠÄłhy": 2077,
      "ĠÄłhom": 2078,
      "ĠÄłHer": 2079,
      "ĠION": 2080,
      "ĠÄłland": 2081,
      "ĠÄłloc": 2082,
      "Ġware": 2083,
      "Ġames": 2084,
      "Ġaging": 2085,
      "Ġroom": 2086,
      "ĠÄłWar": 2087,
      "Ġeth": 2088,
      "Ġrav": 2089,
      "ĠÄłunc": 2090,
      "Ġuses": 2091,
      "ĠÄłvar": 2092,
      "ĠÄłdest": 2093,
      "Ġister": 2094,
      "Ġ69": 2095,
      "Ġoms": 2096,
      "ĠÄłexper": 2097,
      "Ġ44": 2098,
      "Ġ77": 2099,
      "ument": 2100,
      "Ġaced": 2101,
      "ash": 2102,
      "ĠUT": 2103,
      "Ġird": 2104,
      "orth": 2105,
      "Ġops": 2106,
      "abor": 2107,
      "Ġocr": 2108,
      "oph": 2109,
      "ccess": 2110,
      "Ġicks": 2111,
      "Ġously": 2112,
      "ĠÄłnew": 2113,
      "Ġudd": 2114,
      "ĠÃ¢Ä¢Ä¶": 2115,
      "Ġhere": 2116,
      "Ġression": 2117,
      "ĠÄłDef": 2118,
      "Ġkey": 2119,
      "irect": 2120,
      "ĠÄłcrit": 2121,
      "Ġboard": 2122,
      "ĠÄłNew": 2123,
      "az": 2124,
      "ale": 2125,
      "day": 2126,
      "ek": 2127,
      "ew": 2128,
      "ey": 2129,
      "ral": 2130,
      "ted": 2131,
      "uro": 2132,
      "ven": 2133,
      "Ġ@": 2134,
      "ĠÄ¨": 2135,
      "ĠÄłrad": 2136,
      "Ġiat": 2137,
      "Ġios": 2138,
      "Ġield": 2139,
      "Ġaur": 2140,
      "Ġause": 2141,
      "Ġoad": 2142,
      "Ġeat": 2143,
      "reg": 2144,
      "Ġuch": 2145,
      "Ġuel": 2146,
      "Ġino": 2147,
      "Ġining": 2148,
      "Ġinated": 2149,
      "ĠÄłcy": 2150,
      "ĠÄłcry": 2151,
      "Ġrol": 2152,
      "lex": 2153,
      "ĠÄłser": 2154,
      "ĠÄłsem": 2155,
      "Ġatives": 2156,
      "Ġsw": 2157,
      "ĠÄłple": 2158,
      "Ġcess": 2159,
      "Ġcast": 2160,
      "ĠÄłSk": 2161,
      "ĠÄłSim": 2162,
      "atic": 2163,
      "ĠÄłCal": 2164,
      "Ġeral": 2165,
      "Ġication": 2166,
      "ĠÄłmor": 2167,
      "ĠÄłmark": 2168,
      "Ġbit": 2169,
      "Ġbers": 2170,
      "Ġhel": 2171,
      "Ġork": 2172,
      "ĠÄłfav": 2173,
      "ĠÄłrepl": 2174,
      "Ġream": 2175,
      "ĠÄłAct": 2176,
      "Ġna": 2177,
      "ĠÃĲ": 2178,
      "ĠÃĹ": 2179,
      "ĠÃĺ": 2180,
      "Ġges": 2181,
      "ĠÄłep": 2182,
      "Ġfore": 2183,
      "ĠÄłinit": 2184,
      "ĠÄłRob": 2185,
      "ĠÄłTH": 2186,
      "ĠÄłhyp": 2187,
      "ĠÄłDes": 2188,
      "Ġlev": 2189,
      "ise": 2190,
      "ĠEL": 2191,
      "ĠÄłFor": 2192,
      "ĠÄłla": 2193,
      "Ġwh": 2194,
      "Ġwork": 2195,
      "ĠÄłwa": 2196,
      "ĠÄłwith": 2197,
      "ĠÄłGe": 2198,
      "Ġasing": 2199,
      "Ġiding": 2200,
      "ĠOP": 2201,
      "Ġams": 2202,
      "ĠPl": 2203,
      "Ġrog": 2204,
      "Ġraz": 2205,
      "Ġraph": 2206,
      "Ġraft": 2207,
      "Ġilled": 2208,
      "Ġother": 2209,
      "Ġurt": 2210,
      "Ġste": 2211,
      "Ġstand": 2212,
      "ĠDe": 2213,
      "Ġused": 2214,
      "ĠÄłver": 2215,
      "Ġimes": 2216,
      "Ġiment": 2217,
      "Ġ37": 2218,
      "Ġ38": 2219,
      "Ġ39": 2220,
      "Ġ67": 2221,
      "Ġ47": 2222,
      "Ġ49": 2223,
      "ĠÂ¥": 2224,
      "ĠÂ«": 2225,
      "ĠÂ¼": 2226,
      "Ġ78": 2227,
      "vern": 2228,
      "ump": 2229,
      "ĠÄłcomb": 2230,
      "Ġateg": 2231,
      "Ġival": 2232,
      "Ġody": 2233,
      "Ġiant": 2234,
      "Ġvern": 2235,
      "Ġvery": 2236,
      "Ġibility": 2237,
      "Ġills": 2238,
      "Ġxt": 2239,
      "Ġacks": 2240,
      "ĠÄłplay": 2241,
      "Ġanced": 2242,
      "Ġocks": 2243,
      "ĠÄłdiss": 2244,
      "Ġaught": 2245,
      "ĠÄłSpe": 2246,
      "ĠÄłabs": 2247,
      "ĠÄłAng": 2248,
      "Ġcomm": 2249,
      "Ġitional": 2250,
      "ĠÄłcommun": 2251,
      "Ġprint": 2252,
      "ĠÄłwork": 2253,
      "conom": 2254,
      "10": 2255,
      "12": 2256,
      "14": 2257,
      ";;": 2258,
      "ED": 2259,
      "OR": 2260,
      "equ": 2261,
      "fact": 2262,
      "gr": 2263,
      "get": 2264,
      "ool": 2265,
      "par": 2266,
      "port": 2267,
      "uss": 2268,
      "Â¼": 2269,
      "Ã¯": 2270,
      "Ġ........": 2271,
      "ĠÄ¢": 2272,
      "ĠÄ«": 2273,
      "ĠÄ³": 2274,
      "ĠÄº": 2275,
      "ĠÄŃ": 2276,
      "ĠÄłis": 2277,
      "ĠÄłur": 2278,
      "Ġiation": 2279,
      "Ġiled": 2280,
      "Ġares": 2281,
      "Ġoes": 2282,
      "Ġux": 2283,
      "Ġule": 2284,
      "Ġiness": 2285,
      "Ġror": 2286,
      "leb": 2287,
      "ĠÄłsat": 2288,
      "ĠÄłsch": 2289,
      "Ġside": 2290,
      "alk": 2291,
      "ĠÄłpen": 2292,
      "ĠÄłpub": 2293,
      "ars": 2294,
      "ane": 2295,
      "ĠÄłder": 2296,
      "ĠÄłShe": 2297,
      "Ġtes": 2298,
      "Ġtain": 2299,
      "Ġmar": 2300,
      "Ġitution": 2301,
      "ĠÄłtim": 2302,
      "ĠÄłtou": 2303,
      "ĠÄłtrad": 2304,
      "Ġarian": 2305,
      "ĠÄłmo": 2306,
      "Ġbed": 2307,
      "Ġbur": 2308,
      "Ġhold": 2309,
      "Ġening": 2310,
      "ĠÄłren": 2311,
      "ĠÄłPet": 2312,
      "ĠÄłPres": 2313,
      "ĠÄłPart": 2314,
      "ĠÄłAnt": 2315,
      "ĠÄłAll": 2316,
      "ĠÄłMet": 2317,
      "ital": 2318,
      "ĠÄłBo": 2319,
      "Ġny": 2320,
      "Ġners": 2321,
      "ĠÄłinn": 2322,
      "ĠÄłRo": 2323,
      "Ġaly": 2324,
      "ĠÄłTw": 2325,
      "ĠÄłDr": 2326,
      "ĠÄłDem": 2327,
      "Ġlection": 2328,
      "ĠÄłgro": 2329,
      "ceed": 2330,
      "ĠÄłFe": 2331,
      "ĠÄłlim": 2332,
      "ĠÄłlog": 2333,
      "ĠCL": 2334,
      "olog": 2335,
      "Ġesc": 2336,
      "ĠÄłoper": 2337,
      "Ġolit": 2338,
      "Ġolution": 2339,
      "Ġross": 2340,
      "ĠÄłnar": 2341,
      "ĠÄłIN": 2342,
      "ĠÄłId": 2343,
      "Ġ200": 2344,
      "Ġrain": 2345,
      "rid": 2346,
      "Ġils": 2347,
      "Ġilt": 2348,
      "Ġiling": 2349,
      "Ġries": 2350,
      "Ġstr": 2351,
      "ĠÄłuns": 2352,
      "Ġusion": 2353,
      "Ġerson": 2354,
      "Ġume": 2355,
      "Ġument": 2356,
      "ffect": 2357,
      "Ġulate": 2358,
      "Ġulated": 2359,
      "ĠÂ£": 2360,
      "ĠÂ©": 2361,
      "iron": 2362,
      "Ġife": 2363,
      "Ġ58": 2364,
      "Ġ59": 2365,
      "Ġacc": 2366,
      "tern": 2367,
      "ĠÄłdisapp": 2368,
      "Ġiving": 2369,
      "ĠÄłcoun": 2370,
      "ĠÄłshort": 2371,
      "Ġayer": 2372,
      "Ġension": 2373,
      "Ġiance": 2374,
      "Ġaving": 2375,
      "Ġhead": 2376,
      "ĠÄłclass": 2377,
      "Ġ).": 2378,
      "Ġ);": 2379,
      "ĠÄłprec": 2380,
      "ĠÄłprev": 2381,
      "ustom": 2382,
      "Ġouse": 2383,
      "ĠÄłrob": 2384,
      "Ġude": 2385,
      "ĠÄłarch": 2386,
      "Ġawn": 2387,
      "ĠÄłimpro": 2388,
      "ĠÄłLeg": 2389,
      "ĠÄłphot": 2390,
      "ĠÄłphys": 2391,
      "ĠÄłswe": 2392,
      "Ġences": 2393,
      "ĠQu": 2394,
      "ĠÃĤÅĤ": 2395,
      "ĠÄłdeter": 2396,
      "ike": 2397,
      "Ġwards": 2398,
      "Ġ...": 2399,
      "16": 2400,
      "17": 2401,
      "AR": 2402,
      "af": 2403,
      "au": 2404,
      "aur": 2405,
      "gin": 2406,
      "ior": 2407,
      "ner": 2408,
      "uck": 2409,
      "Ã£Ä": 2410,
      "Ġ--------": 2411,
      "ĠÄ£": 2412,
      "ĠÄ¦": 2413,
      "ĠÄµ": 2414,
      "ĠÄ¾": 2415,
      "ĠÄłident": 2416,
      "Ġiot": 2417,
      "Ġince": 2418,
      "ĠÄłcat": 2419,
      "ĠÄłcro": 2420,
      "Ġrs": 2421,
      "ĠÄłsle": 2422,
      "Ġser": 2423,
      "alth": 2424,
      "ĠÄłpun": 2425,
      "ĠÄłpos": 2426,
      "ĠÄłpract": 2427,
      "Ġcol": 2428,
      "Ġcul": 2429,
      "arm": 2430,
      "arn": 2431,
      "Ġpir": 2432,
      "Ġli": 2433,
      "ĠÄłSub": 2434,
      "Ġto": 2435,
      "Ġtime": 2436,
      "Ġmark": 2437,
      "Ġiter": 2438,
      "Ġitud": 2439,
      "Ġinger": 2440,
      "ĠÄłtest": 2441,
      "Ġarr": 2442,
      "rom": 2443,
      "ĠÄłfund": 2444,
      "ĠÄłrequ": 2445,
      "Ġrey": 2446,
      "ĠÄłMil": 2447,
      "ĠÄłMod": 2448,
      "ĠÄłBel": 2449,
      "ĠÃİ": 2450,
      "ĠÃĻ": 2451,
      "ĠÃł": 2452,
      "Ġgy": 2453,
      "Ġgen": 2454,
      "Ġgrad": 2455,
      "ĠApp": 2456,
      "ĠÄłRel": 2457,
      "ĠÄłTra": 2458,
      "ĠÄłhon": 2459,
      "urd": 2460,
      "ĠÄłge": 2461,
      "ute": 2462,
      "ĠIR": 2463,
      "ĠIm": 2464,
      "ĠÄłlab": 2465,
      "ĠÄłliber": 2466,
      "ĠÄłwr": 2467,
      "ili": 2468,
      "Ġamin": 2469,
      "Ġaming": 2470,
      "Ġament": 2471,
      "ĠPS": 2472,
      "Ġkins": 2473,
      "ĠÄłstand": 2474,
      "Ġoly": 2475,
      "Ġlying": 2476,
      "Ġilit": 2477,
      "Ġrist": 2478,
      "Ġention": 2479,
      "Ġ34": 2480,
      "ĠLe": 2481,
      "Ġosh": 2482,
      "Ġoses": 2483,
      "ĠÄłexc": 2484,
      "ĠÄłpros": 2485,
      "ĠÂ¦": 2486,
      "ĠÂº": 2487,
      "ĠÂ»": 2488,
      "Ġ79": 2489,
      "Ġaked": 2490,
      "Ġaken": 2491,
      "ĠÄłJud": 2492,
      "ason": 2493,
      "ĠUL": 2494,
      "Ġirl": 2495,
      "Ġzz": 2496,
      "Ġiven": 2497,
      "Ġ88": 2498,
      "ĠÄłUS": 2499,
      "ĠÄłSte": 2500,
      "Ġibr": 2501,
      "Ġ),": 2502,
      "ĠÄłcompet": 2503,
      "Ġaction": 2504,
      "Ġorts": 2505,
      "Ġially": 2506,
      "ĠÄłneigh": 2507,
      "Ġ0000": 2508,
      "ĠÄłsubst": 2509,
      "Ġocket": 2510,
      "Ġords": 2511,
      "Ġressed": 2512,
      "ĠÄłdirect": 2513,
      "Ġashed": 2514,
      "ĠÃ£Ä¥Ä": 2515,
      "Ġ.\"": 2516,
      "ĠÄłAnd": 2517,
      "ĠÄłtechn": 2518,
      "ĠÄłamb": 2519,
      "Ġffic": 2520,
      "ĠÄłdecl": 2521,
      "Ġigned": 2522,
      "ĠING": 2523,
      "ĠÄłacqu": 2524,
      "ĠÄłsym": 2525,
      "ĠENT": 2526,
      "Ġspe": 2527,
      "Ġipped": 2528,
      "minist": 2529,
      "Ġique": 2530,
      "ribut": 2531,
      "ĠÄłcount": 2532,
      "ĠÄłesc": 2533,
      "13": 2534,
      "15": 2535,
      "24": 2536,
      "25": 2537,
      "40": 2538,
      "ai": 2539,
      "ble": 2540,
      "lish": 2541,
      "pr": 2542,
      "te": 2543,
      "unt": 2544,
      "Ġ....": 2545,
      "ĠÅĤ": 2546,
      "ĠÄ¶": 2547,
      "ĠÄ¸": 2548,
      "ĠÄłing": 2549,
      "ĠÄłign": 2550,
      "Ġias": 2551,
      "Ġience": 2552,
      "Ġoro": 2553,
      "Ġoint": 2554,
      "Ġey": 2555,
      "Ġeed": 2556,
      "ery": 2557,
      "rest": 2558,
      "rent": 2559,
      "Ġuct": 2560,
      "stem": 2561,
      "Ġinate": 2562,
      "ĠÄłcult": 2563,
      "ĠÄłcreat": 2564,
      "ĠÄłcamp": 2565,
      "ĠÄłsil": 2566,
      "ĠÄłserv": 2567,
      "Ġsk": 2568,
      "ĠÄłpay": 2569,
      "Ġcial": 2570,
      "Ġcons": 2571,
      "Ġcraft": 2572,
      "Ġpart": 2573,
      "Ġpper": 2574,
      "Ġpower": 2575,
      "ĠÄłdri": 2576,
      "Ġlim": 2577,
      "ĠÄłSm": 2578,
      "ĠÄłSo": 2579,
      "ĠÄłSal": 2580,
      "ĠÄłSec": 2581,
      "Ġanch": 2582,
      "Ġanks": 2583,
      "Ġitter": 2584,
      "ĠÄłtur": 2585,
      "ĠÄłtax": 2586,
      "ĠÄłaud": 2587,
      "ĠÄłmy": 2588,
      "ĠÄłmat": 2589,
      "ĠÄłmicro": 2590,
      "Ġhib": 2591,
      "Ġoring": 2592,
      "Ġeder": 2593,
      "ĠÄłPR": 2594,
      "ĠÄłPers": 2595,
      "Ġrequ": 2596,
      "ĠÄłMo": 2597,
      "ĠÄłMag": 2598,
      "ĠÄłBer": 2599,
      "ĠÄłBen": 2600,
      "Ġnes": 2601,
      "Ġnet": 2602,
      "Ġnder": 2603,
      "Ġym": 2604,
      "ĠAA": 2605,
      "ĠAY": 2606,
      "ĠÄłRE": 2607,
      "ĠÄłRed": 2608,
      "ĠÄłRom": 2609,
      "Ġalth": 2610,
      "ĠÄłDi": 2611,
      "isf": 2612,
      "ĠÄłgrad": 2613,
      "ĠIF": 2614,
      "ĠIV": 2615,
      "ĠÄłFre": 2616,
      "ĠÄłlif": 2617,
      "ĠÄłlaw": 2618,
      "Ġdd": 2619,
      "ĠCont": 2620,
      "Ġidence": 2621,
      "ĠOC": 2622,
      "ĠOO": 2623,
      "Ġama": 2624,
      "Ġamm": 2625,
      "Ġamer": 2626,
      "Ġags": 2627,
      "Ġague": 2628,
      "Ġround": 2629,
      "Ġrad": 2630,
      "Ġray": 2631,
      "Ġrid": 2632,
      "Ġrie": 2633,
      "Ġried": 2634,
      "Ġrict": 2635,
      "Ġright": 2636,
      "Ġurd": 2637,
      "Ġurch": 2638,
      "amm": 2639,
      "ament": 2640,
      "Ġental": 2641,
      "ĠBl": 2642,
      "ĠÄłviol": 2643,
      "Ġumer": 2644,
      "ĠÂ¯": 2645,
      "ĠÂ½": 2646,
      "Ġelt": 2647,
      "Ġanted": 2648,
      "Ġution": 2649,
      "ĠÄłVal": 2650,
      "ĠÄłVol": 2651,
      "Ġigr": 2652,
      "ĠÄłrun": 2653,
      "Ġizz": 2654,
      "Ġests": 2655,
      "resent": 2656,
      "Ġived": 2657,
      "ĠWh": 2658,
      "ĠÄłcour": 2659,
      "ĠÄłshow": 2660,
      "Ġocal": 2661,
      "Ġander": 2662,
      "ouse": 2663,
      "Ġtered": 2664,
      "ĠÄładj": 2665,
      "ogn": 2666,
      "Ġensive": 2667,
      "ĠVER": 2668,
      "Ġipe": 2669,
      "Ġief": 2670,
      "ĠÄłChar": 2671,
      "ĠÄłChrist": 2672,
      "ateg": 2673,
      "ĠÄłang": 2674,
      "ĠÄłimpl": 2675,
      "Ġavor": 2676,
      "ĠÄłInvest": 2677,
      "Ġanger": 2678,
      "Ġourn": 2679,
      "Ġours": 2680,
      "Ġclaim": 2681,
      "ĠÄłcontro": 2682,
      "199": 2683,
      "Ġctor": 2684,
      "Ġishing": 2685,
      "Ġque": 2686,
      "ĠÄłprem": 2687,
      "ocr": 2688,
      "Ġ\":": 2689,
      "Ġredit": 2690,
      "rupt": 2691,
      "Ġlling": 2692,
      "Ġears": 2693,
      "ĠÄłqual": 2694,
      "ĠÄłProt": 2695,
      "Ġberg": 2696,
      "ĠÄłposs": 2697,
      "Ġcomp": 2698,
      "arent": 2699,
      "Ġepend": 2700,
      "Ġrown": 2701,
      "Ã¢Ä¢": 2702,
      "Ġailed": 2703,
      "Ġports": 2704,
      "ĠÄłsyn": 2705,
      "Ġ201": 2706,
      "ĠÄłagg": 2707,
      "Ġways": 2708,
      "Ġipping": 2709,
      "ĠÄłske": 2710,
      "ĠÄłcapt": 2711,
      "ĠÄłfoot": 2712,
      "201": 2713,
      "ropri": 2714,
      "Ġvertis": 2715,
      "ĠÄłactiv": 2716,
      "ĠÄłoccup": 2717,
      "ĠÅĥ": 2718,
      "ĠÄłsusp": 2719,
      "ĠÃĥÄ¥ÃĥÄ¤": 2720,
      "ironment": 2721,
      "26": 2722,
      "28": 2723,
      "29": 2724,
      "200": 2725,
      "CT": 2726,
      "cast": 2727,
      "io": 2728,
      "ien": 2729,
      "load": 2730,
      "mer": 2731,
      "rim": 2732,
      "wn": 2733,
      "yd": 2734,
      "Â¢": 2735,
      "Â§": 2736,
      "Ä´": 2737,
      "Ġ|": 2738,
      "ĠÄ§": 2739,
      "ĠÄ¯": 2740,
      "ĠÄ°": 2741,
      "ĠÄ±": 2742,
      "ĠÄ²": 2743,
      "ĠÄ·": 2744,
      "ĠÄłit": 2745,
      "ĠÄłide": 2746,
      "Ġius": 2747,
      "Ġiers": 2748,
      "Ġaud": 2749,
      "Ġoor": 2750,
      "Ġoom": 2751,
      "Ġoch": 2752,
      "Ġoles": 2753,
      "Ġoice": 2754,
      "Ġeless": 2755,
      "onal": 2756,
      "Ġuro": 2757,
      "Ġuild": 2758,
      "Ġuzz": 2759,
      "inal": 2760,
      "Ġiny": 2761,
      "ĠÄłcred": 2762,
      "ĠÄłcert": 2763,
      "Ġrated": 2764,
      "Ġato": 2765,
      "Ġsect": 2766,
      "Ġsemb": 2767,
      "ĠÄłpot": 2768,
      "ĠÄłpack": 2769,
      "ĠÄłpain": 2770,
      "ĠÄłdig": 2771,
      "ĠÄłdoc": 2772,
      "Ġlo": 2773,
      "ĠÄłCur": 2774,
      "Ġmm": 2775,
      "Ġmor": 2776,
      "Ġitz": 2777,
      "Ġither": 2778,
      "Ġitial": 2779,
      "Ġerc": 2780,
      "Ġerg": 2781,
      "ĠÄłty": 2782,
      "ĠÄłtor": 2783,
      "Ġica": 2784,
      "Ġarter": 2785,
      "Ġarily": 2786,
      "ĠÄłbit": 2787,
      "ĠÄłbom": 2788,
      "ĠÄłbus": 2789,
      "ĠÄłbri": 2790,
      "ĠÄłmut": 2791,
      "ĠÄłmus": 2792,
      "ĠÄłmel": 2793,
      "ĠÄłmain": 2794,
      "Ġbon": 2795,
      "Ġhest": 2796,
      "Ġhood": 2797,
      "ĠÄłfam": 2798,
      "ĠÄłfire": 2799,
      "ĠÄłfact": 2800,
      "ĠÄłrein": 2801,
      "ĠÄłread": 2802,
      "ĠÄłPri": 2803,
      "Ġreen": 2804,
      "ĠÄłAc": 2805,
      "ĠÄłAf": 2806,
      "ĠÄłAv": 2807,
      "ĠÄłMal": 2808,
      "Ġvil": 2809,
      "Ġvious": 2810,
      "ung": 2811,
      "ĠÄłBur": 2812,
      "ĠÃĦ": 2813,
      "Ġgu": 2814,
      "Ġgan": 2815,
      "Ġground": 2816,
      "Ġyth": 2817,
      "ĠÄłey": 2818,
      "ĠAG": 2819,
      "Ġfe": 2820,
      "Ġfort": 2821,
      "Ġford": 2822,
      "Ġfield": 2823,
      "ĠÄłRem": 2824,
      "Ġisk": 2825,
      "ĠÄłTem": 2826,
      "ĠÄłhard": 2827,
      "Ġlex": 2828,
      "isl": 2829,
      "ism": 2830,
      "ison": 2831,
      "isher": 2832,
      "chan": 2833,
      "chie": 2834,
      "ĠSe": 2835,
      "rap": 2836,
      "ĠIM": 2837,
      "ĠIP": 2838,
      "ĠÄłlist": 2839,
      "Ġword": 2840,
      "ĠÄłwas": 2841,
      "Ġasp": 2842,
      "ĠCol": 2843,
      "ĠÄłEv": 2844,
      "Ġamed": 2845,
      "ĠPL": 2846,
      "ĠPR": 2847,
      "Ġese": 2848,
      "Ġolic": 2849,
      "ĠÄłnom": 2850,
      "ĠÄłnum": 2851,
      "Ġabb": 2852,
      "ĠÄłNot": 2853,
      "Ġilities": 2854,
      "Ġoto": 2855,
      "Ġotyp": 2856,
      "ĠRes": 2857,
      "Ġurg": 2858,
      "Ġading": 2859,
      "ĠBC": 2860,
      "ĠBI": 2861,
      "ĠBe": 2862,
      "ĠÄłvir": 2863,
      "Ġimal": 2864,
      "Ġimum": 2865,
      "ĠÄłKe": 2866,
      "Ġchn": 2867,
      "Ġumin": 2868,
      "Ġosing": 2869,
      "ĠÄłexam": 2870,
      "Ġuls": 2871,
      "ĠÂ±": 2872,
      "Ġunch": 2873,
      "Ġaks": 2874,
      "ĠÄłVer": 2875,
      "Ġ57": 2876,
      "Ġacing": 2877,
      "odd": 2878,
      "ĠUM": 2879,
      "ĠUN": 2880,
      "Ġirm": 2881,
      "Ġirst": 2882,
      "Ġems": 2883,
      "Ġempt": 2884,
      "Ġements": 2885,
      "Ġember": 2886,
      "Ġivid": 2887,
      "Ġivity": 2888,
      "ĠWe": 2889,
      "Ġoper": 2890,
      "ĠÄłcop": 2891,
      "Ġaper": 2892,
      "gest": 2893,
      "ĠÄłcho": 2894,
      "ĠÄłStr": 2895,
      "ose": 2896,
      "Ġilling": 2897,
      "ĠÄłimag": 2898,
      "ĠÄłsepar": 2899,
      "ĠÄłInc": 2900,
      "Ġangu": 2901,
      "Ġanged": 2902,
      "Ġanging": 2903,
      "Ġception": 2904,
      "ĠÄłjud": 2905,
      "198": 2906,
      "Ġctions": 2907,
      "Ġache": 2908,
      "Ġached": 2909,
      "Ġaches": 2910,
      "Ġrypt": 2911,
      "ĠÄłpref": 2912,
      "ĠÄłConst": 2913,
      "oci": 2914,
      "Ġortun": 2915,
      "Ġouth": 2916,
      "Ġoked": 2917,
      "ough": 2918,
      "Ġarent": 2919,
      "Ġresp": 2920,
      "Ġressive": 2921,
      "Ġube": 2922,
      "ĠÄłDep": 2923,
      "Ġugg": 2924,
      "ĠÄłArch": 2925,
      "Ġinding": 2926,
      "ĠÄłtext": 2927,
      "ĠÄłindic": 2928,
      "ĠÄłExt": 2929,
      "ĠÄłExpl": 2930,
      "ĠÄłinfl": 2931,
      "Ġixt": 2932,
      "Ã¢Ä¶Ä¢": 2933,
      "Ġ,\"": 2934,
      "Ġbook": 2935,
      "Ġission": 2936,
      "ĠÄłautom": 2937,
      "ĠÄłhapp": 2938,
      "Ġternal": 2939,
      "ĠÄłdemon": 2940,
      "ĠÄłspecial": 2941,
      "Ġography": 2942,
      "ĠÄłSupp": 2943,
      "Ġifying": 2944,
      "________________": 2945,
      "ĠÄłbroad": 2946,
      "ĠÄłpriv": 2947,
      "ĠÄłÃ¢Ä¢": 2948,
      "ĠÄłbelie": 2949,
      "ĠÄłanaly": 2950,
      "ĠÄłinvestig": 2951,
      "yster": 2952,
      "ĠÄłsubsc": 2953,
      "ĠÄłbehav": 2954,
      "ĠÄłauthor": 2955,
      "-=": 2956,
      "23": 2957,
      "27": 2958,
      "30": 2959,
      "AS": 2960,
      "cl": 2961,
      "cul": 2962,
      "gg": 2963,
      "ha": 2964,
      "hip": 2965,
      "hens": 2966,
      "lig": 2967,
      "lud": 2968,
      "ront": 2969,
      "ufact": 2970,
      "view": 2971,
      "¸Äª": 2972,
      "Â³": 2973,
      "Äł": 2974,
      "Åģ": 2975,
      "Ġ&": 2976,
      "Ġ`": 2977,
      "Ġ----": 2978,
      "ĠÄ¥": 2979,
      "ĠÄ¹": 2980,
      "ĠÄ»": 2981,
      "Ġiest": 2982,
      "Ġait": 2983,
      "Ġaim": 2984,
      "Ġaul": 2985,
      "Ġoud": 2986,
      "Ġees": 2987,
      "erc": 2988,
      "erent": 2989,
      "rel": 2990,
      "read": 2991,
      "Ġuan": 2992,
      "Ġuri": 2993,
      "Ġuation": 2994,
      "Ġuous": 2995,
      "Ġinst": 2996,
      "Ġinating": 2997,
      "ĠÄłcru": 2998,
      "ĠÄłcustom": 2999,
      "ĠÄłsent": 3000,
      "ĠÄłsac": 3001,
      "ĠÄłped": 3002,
      "arian": 3003,
      "Ġpi": 3004,
      "Ġples": 3005,
      "Ġpoint": 3006,
      "anc": 3007,
      "ĠÄłdon": 3008,
      "ĠÄłded": 3009,
      "ĠÄłdam": 3010,
      "Ġlled": 3011,
      "ĠÄłSam": 3012,
      "ator": 3013,
      "ather": 3014,
      "Ġani": 3015,
      "ĠÄłCam": 3016,
      "Ġmp": 3017,
      "Ġmod": 3018,
      "Ġingly": 3019,
      "Ġero": 3020,
      "ĠÄłtot": 3021,
      "Ġici": 3022,
      "Ġiced": 3023,
      "Ġicate": 3024,
      "ĠÄłaf": 3025,
      "Ġarc": 3026,
      "ĠÄłbet": 3027,
      "ĠÄłbut": 3028,
      "ĠÄłbull": 3029,
      "ĠÄłmid": 3030,
      "ĠÄłmiss": 3031,
      "Ġbod": 3032,
      "ĠÄłfort": 3033,
      "ĠÄłrece": 3034,
      "Ġeds": 3035,
      "Ġrect": 3036,
      "ĠÄłAtt": 3037,
      "ĠÄłMy": 3038,
      "ĠÄłMad": 3039,
      "itive": 3040,
      "ĠÄłBul": 3041,
      "Ġns": 3042,
      "Ġga": 3043,
      "Ġgl": 3044,
      "ĠÄłele": 3045,
      "ĠÄłear": 3046,
      "ĠÄłeth": 3047,
      "ĠÄłeconom": 3048,
      "ĠAtt": 3049,
      "Ġfect": 3050,
      "Ġface": 3051,
      "ĠÄłinj": 3052,
      "Ġonent": 3053,
      "Ġalf": 3054,
      "ĠÄłTor": 3055,
      "ĠÄłhist": 3056,
      "ĠÄłhop": 3057,
      "ĠÄłhost": 3058,
      "ĠÄłhigh": 3059,
      "ĠÄłDet": 3060,
      "ĠSA": 3061,
      "ĠEE": 3062,
      "ray": 3063,
      "rant": 3064,
      "ĠÄłHel": 3065,
      "ĠÄłHaw": 3066,
      "ĠIA": 3067,
      "ĠII": 3068,
      "ĠIt": 3069,
      "ĠInt": 3070,
      "ĠÄłFin": 3071,
      "ĠÄłLu": 3072,
      "ĠÄłlic": 3073,
      "Ġwn": 3074,
      "Ġwest": 3075,
      "Ġwrit": 3076,
      "Ġdom": 3077,
      "Ġasy": 3078,
      "ĠCT": 3079,
      "ilities": 3080,
      "ĠÄłEr": 3081,
      "ĠÄłElect": 3082,
      "Ġidel": 3083,
      "Ġidge": 3084,
      "Ġidents": 3085,
      "ĠÄłconnect": 3086,
      "Ġagn": 3087,
      "ĠÄłovers": 3088,
      "ĠÄłstim": 3089,
      "ĠÄłstud": 3090,
      "Ġolph": 3091,
      "Ġros": 3092,
      "ĠTH": 3093,
      "ĠÄłIS": 3094,
      "ĠÄłIt": 3095,
      "Ġ21": 3096,
      "ĠÄłNic": 3097,
      "rie": 3098,
      "ational": 3099,
      "ĠRep": 3100,
      "Ġript": 3101,
      "Ġuration": 3102,
      "Ġston": 3103,
      "Ġads": 3104,
      "ĠÄłview": 3105,
      "ĠÄłdevelop": 3106,
      "Ġumn": 3107,
      "Ġomm": 3108,
      "Ġoming": 3109,
      "Ġosition": 3110,
      "Ġulous": 3111,
      "ĠÄłprodu": 3112,
      "ĠÄłproject": 3113,
      "ĠÂ§": 3114,
      "ĠÂª": 3115,
      "ĠÂ°": 3116,
      "ĠÂ³": 3117,
      "ĠÂµ": 3118,
      "ĠÂ¶": 3119,
      "ĠÂ¸": 3120,
      "ĠÂ¹": 3121,
      "ĠÂ¿": 3122,
      "Ġunction": 3123,
      "Ġantic": 3124,
      "Ġantly": 3125,
      "Ġuted": 3126,
      "Ġutes": 3127,
      "vert": 3128,
      "umb": 3129,
      "Ġigg": 3130,
      "Ġacle": 3131,
      "ĠÄłdism": 3132,
      "ecess": 3133,
      "Ġ95": 3134,
      "Ġ98": 3135,
      "ably": 3136,
      "ĠÃ£Ä¢": 3137,
      "ĠÄłsho": 3138,
      "Ġoci": 3139,
      "Ġocation": 3140,
      "ĠÄłens": 3141,
      "osp": 3142,
      "Ġthing": 3143,
      "ĠÄładm": 3144,
      "ĠÄładminist": 3145,
      "Ġverage": 3146,
      "Ġibly": 3147,
      "Ġogen": 3148,
      "Ġogue": 3149,
      "arth": 3150,
      "Ġables": 3151,
      "Ġasts": 3152,
      "Ġastic": 3153,
      "Ġiple": 3154,
      "Ġxy": 3155,
      "ĠÄłany": 3156,
      "Ġaves": 3157,
      "Ġplace": 3158,
      "ĠÄłInf": 3159,
      "Ġource": 3160,
      "ĠÄłscr": 3161,
      "ĠÄłrespect": 3162,
      "ĠÄłke": 3163,
      "ĠÄłcontem": 3164,
      "Ġquest": 3165,
      "Ġruction": 3166,
      "agn": 3167,
      "ĠÄłemploy": 3168,
      "Ġouts": 3169,
      "ĠÄłarg": 3170,
      "Ġoking": 3171,
      "Ġuster": 3172,
      "Ġpert": 3173,
      "ĠÄłrecon": 3174,
      "ĠÄłrecogn": 3175,
      "Ġocked": 3176,
      "ĠÄłappre": 3177,
      "ĠÄłinteg": 3178,
      "Ġashing": 3179,
      "ĠÄłProv": 3180,
      "ĠÄłincre": 3181,
      "ĠÄłincor": 3182,
      "Ġbert": 3183,
      "ĠÄłpoll": 3184,
      "ĠÄłord": 3185,
      "ĠÄłorig": 3186,
      "ĠÄłphil": 3187,
      "Ġample": 3188,
      "ĠÄłprim": 3189,
      "ĠÄłinform": 3190,
      "ĠÄłobject": 3191,
      "Ġwell": 3192,
      "Ġiously": 3193,
      "ĠÄłrepe": 3194,
      "ĠÄłdesign": 3195,
      "Ã¢Ä¸Äª": 3196,
      "Ġounds": 3197,
      "ĠÄłsurv": 3198,
      "Ġlands": 3199,
      "Ġbox": 3200,
      "Ġcient": 3201,
      "Ġairs": 3202,
      "ĠÄłregul": 3203,
      "ĠInd": 3204,
      "ĠInst": 3205,
      "ĠÄłdetect": 3206,
      "ĠÄłPlay": 3207,
      "Ġverse": 3208,
      "ĠÄłmeas": 3209,
      "ĠÄłcollect": 3210,
      "ĠÄłEng": 3211,
      "Ġ!!": 3212,
      "ĠÄłdoub": 3213,
      "ĠÄłMcC": 3214,
      "ĠÄłinstall": 3215,
      "Ġ>>": 3216,
      "Ġmedi": 3217,
      "ext": 3218,
      "ĠÄłgovern": 3219,
      "Ġiety": 3220,
      "ĠÄłsaf": 3221,
      "ĠÄłconstit": 3222,
      "ĠÄłcounter": 3223,
      "Ġidden": 3224,
      "ynam": 3225,
      "ĠÄłtwe": 3226,
      "ĠÄłpromot": 3227,
      "ĠÄłpredict": 3228,
      "########": 3229,
      "~~~~": 3230,
      "ĠÅģ": 3231,
      "ĠÄłcollabor": 3232,
      "////////": 3233,
      "Ġmission": 3234,
      "ĠÄłceleb": 3235,
      "ĠÄłbenef": 3236,
      "ĠÄłsett": 3237,
      "Ġaughter": 3238,
      "Ã£Ä¥": 3239,
      "Ġitude": 3240,
      "ĠÄłneighb": 3241,
      "ÄłÃĤÅĤ": 3242,
      "Ġbody": 3243,
      "AT": 3244,
      "ES": 3245,
      "ID": 3246,
      "ION": 3247,
      "NT": 3248,
      "aj": 3249,
      "aff": 3250,
      "acc": 3251,
      "cent": 3252,
      "hod": 3253,
      "iet": 3254,
      "ipl": 3255,
      "lt": 3256,
      "ler": 3257,
      "oll": 3258,
      "over": 3259,
      "pro": 3260,
      "ror": 3261,
      "uel": 3262,
      "upp": 3263,
      "ves": 3264,
      "ward": 3265,
      "Â«": 3266,
      "Â®": 3267,
      "Â¸": 3268,
      "Ġ**": 3269,
      "Ġ================": 3270,
      "ĠÄłid": 3271,
      "ĠÄłiss": 3272,
      "Ġiol": 3273,
      "Ġiable": 3274,
      "Ġients": 3275,
      "Ġao": 3276,
      "Ġaled": 3277,
      "Ġeen": 3278,
      "Ġech": 3279,
      "Ġection": 3280,
      "rem": 3281,
      "ones": 3282,
      "Ġua": 3283,
      "Ġuy": 3284,
      "Ġuate": 3285,
      "Ġules": 3286,
      "Ġiner": 3287,
      "Ġinity": 3288,
      "Ġinder": 3289,
      "ĠÄłcul": 3290,
      "ĠÄłcand": 3291,
      "ĠÄłcare": 3292,
      "Ġrun": 3293,
      "Ġrate": 3294,
      "lent": 3295,
      "ĠÄłsan": 3296,
      "ĠÄłsing": 3297,
      "ĠÄłsit": 3298,
      "Ġata": 3299,
      "Ġatically": 3300,
      "edia": 3301,
      "Ġsen": 3302,
      "ĠÄłpal": 3303,
      "ĠÄłpet": 3304,
      "ĠÄłpast": 3305,
      "Ġcan": 3306,
      "Ġcks": 3307,
      "ari": 3308,
      "arch": 3309,
      "orks": 3310,
      "ĠÄłdim": 3311,
      "Ġlist": 3312,
      "ĠÄłSH": 3313,
      "ĠÄłSol": 3314,
      "Ġten": 3315,
      "Ġtra": 3316,
      "ĠÄłCL": 3317,
      "ĠÄłCO": 3318,
      "ĠÄłCat": 3319,
      "ĠÄłCro": 3320,
      "ĠÄłCent": 3321,
      "ĠÄłCON": 3322,
      "Ġmo": 3323,
      "Ġmen": 3324,
      "Ġmond": 3325,
      "Ġmost": 3326,
      "Ġita": 3327,
      "Ġerry": 3328,
      "Ġerman": 3329,
      "ĠÄłther": 3330,
      "ĠÄłtyp": 3331,
      "ĠÄłturn": 3332,
      "Ġicy": 3333,
      "Ġicle": 3334,
      "Ġicing": 3335,
      "Ġicit": 3336,
      "Ġicip": 3337,
      "Ġicated": 3338,
      "ĠÄłack": 3339,
      "ĠÄłachie": 3340,
      "Ġarge": 3341,
      "Ġarks": 3342,
      "ĠÄłbal": 3343,
      "ĠÄłban": 3344,
      "ĠÄłbat": 3345,
      "ĠÄłbul": 3346,
      "ĠÄłbud": 3347,
      "ĠÄłball": 3348,
      "ĠÄłbill": 3349,
      "ĠÄłbatt": 3350,
      "ĠÄłment": 3351,
      "ĠÄłmort": 3352,
      "ĠÄłmess": 3353,
      "ĠÄłmos": 3354,
      "ĠÄłmass": 3355,
      "Ġban": 3356,
      "Ġbing": 3357,
      "Ġbour": 3358,
      "Ġhol": 3359,
      "Ġhand": 3360,
      "Ġoral": 3361,
      "Ġorder": 3362,
      "ĠÄłfem": 3363,
      "ĠÄłredu": 3364,
      "ĠÄłPal": 3365,
      "ĠÄłPort": 3366,
      "ĠÄłPub": 3367,
      "ĠÄłPass": 3368,
      "ĠÄłPsych": 3369,
      "Ġrec": 3370,
      "ĠÄłAT": 3371,
      "ĠÄłAut": 3372,
      "ĠÄłAcc": 3373,
      "ĠÄłAust": 3374,
      "ĠÄłMus": 3375,
      "ĠÄłMay": 3376,
      "ĠÄłMac": 3377,
      "its": 3378,
      "itor": 3379,
      "ĠÄłBy": 3380,
      "ĠÄłBud": 3381,
      "omin": 3382,
      "Ġnce": 3383,
      "Ġnel": 3384,
      "Ġnow": 3385,
      "ĠÃı": 3386,
      "ĠÃĳ": 3387,
      "Ġya": 3388,
      "Ġyd": 3389,
      "Ġyle": 3390,
      "ĠÄłRet": 3391,
      "Ġisp": 3392,
      "Ġaling": 3393,
      "ĠÄłTre": 3394,
      "ĠÄłhur": 3395,
      "ĠÄłDon": 3396,
      "ĠÄłDel": 3397,
      "ĠÄłDirect": 3398,
      "Ġlease": 3399,
      "ision": 3400,
      "ural": 3401,
      "ĠSE": 3402,
      "eter": 3403,
      "ĠÄłgar": 3404,
      "ĠÄłgun": 3405,
      "ĠÄłHor": 3406,
      "ĠÄłHam": 3407,
      "ĠIs": 3408,
      "ĠInter": 3409,
      "ĠÄłLa": 3410,
      "ĠÄłLo": 3411,
      "ĠÄłLiber": 3412,
      "ĠÄłlob": 3413,
      "ĠÄłwid": 3414,
      "ĠÄłwhe": 3415,
      "ĠÄłwill": 3416,
      "ĠÄłGar": 3417,
      "ĠÄłGen": 3418,
      "ĠÄłGreen": 3419,
      "Ġasion": 3420,
      "ĠCC": 3421,
      "ĠCE": 3422,
      "Ġiders": 3423,
      "Ġiday": 3424,
      "ĠOr": 3425,
      "ĠPD": 3426,
      "Ġesh": 3427,
      "Ġager": 3428,
      "Ġki": 3429,
      "Ġkin": 3430,
      "ĠÄłstar": 3431,
      "ĠÄłstart": 3432,
      "Ġolf": 3433,
      "que": 3434,
      "Ġroid": 3435,
      "Ġrodu": 3436,
      "ĠÄłnut": 3437,
      "ĠTC": 3438,
      "ĠTe": 3439,
      "ĠTER": 3440,
      "ĠÄłIr": 3441,
      "ĠÄłNo": 3442,
      "ĠÄłNor": 3443,
      "Ġrave": 3444,
      "rict": 3445,
      "Ġilar": 3446,
      "Ġotes": 3447,
      "ulf": 3448,
      "ĠRec": 3449,
      "ĠReg": 3450,
      "Ġrik": 3451,
      "Ġrial": 3452,
      "Ġstruct": 3453,
      "Ġader": 3454,
      "ĠDis": 3455,
      "ĠÄłunl": 3456,
      "ĠÄłunw": 3457,
      "Ġenth": 3458,
      "Ġusing": 3459,
      "ĠÄłvers": 3460,
      "ĠÄłvac": 3461,
      "Ġimm": 3462,
      "Ġimately": 3463,
      "ĠFF": 3464,
      "ĠFl": 3465,
      "Ġuments": 3466,
      "ĠLL": 3467,
      "ider": 3468,
      "ĠÄłprob": 3469,
      "ĠÂ¢": 3470,
      "ĠÂ¤": 3471,
      "ĠÂ¨": 3472,
      "ĠÂ®": 3473,
      "ĠÂ¾": 3474,
      "Ġeline": 3475,
      "Ġ76": 3476,
      "ĠÄłOl": 3477,
      "ĠÄłOs": 3478,
      "ĠÄłOut": 3479,
      "Ġuts": 3480,
      "ĠÄłcomment": 3481,
      "ĠÄłJe": 3482,
      "ĠÄłsuccess": 3483,
      "Ġirc": 3484,
      "Ġiring": 3485,
      "ĠHe": 3486,
      "Ġemon": 3487,
      "Ġowers": 3488,
      "Ġzy": 3489,
      "Ġizes": 3490,
      "ĠÄłspr": 3491,
      "Ġesty": 3492,
      "ecial": 3493,
      "ĠÄłcoord": 3494,
      "ability": 3495,
      "Ġalls": 3496,
      "Ġanda": 3497,
      "under": 3498,
      "ĠÄłUN": 3499,
      "ĠÄłUs": 3500,
      "Ġodd": 3501,
      "ĠÄłStat": 3502,
      "Ġensions": 3503,
      "Ġabled": 3504,
      "Ġilly": 3505,
      "Ġillion": 3506,
      "Ġaste": 3507,
      "ĠÄłRef": 3508,
      "ĠÄłclim": 3509,
      "Ġploy": 3510,
      "ĠÄłsex": 3511,
      "ĠÄłsequ": 3512,
      "ĠÄłselect": 3513,
      "Ġources": 3514,
      "ĠÄłju": 3515,
      "ĠÄłjust": 3516,
      "ivil": 3517,
      "ĠÄłcomple": 3518,
      "Ġaching": 3519,
      "ĠÄłpress": 3520,
      "ĠÄłthro": 3521,
      "ĠÄłrout": 3522,
      "Ġrug": 3523,
      "Ġrupt": 3524,
      "Ġacked": 3525,
      "Ġacking": 3526,
      "ĠÄłplan": 3527,
      "ĠÄłneed": 3528,
      "ĠÄłemer": 3529,
      "ĠÄłflu": 3530,
      "Ġarts": 3531,
      "ĠÃ¢Ä¶Ä¢": 3532,
      "ĠÄłarr": 3533,
      "Ġoken": 3534,
      "ĠÄłblock": 3535,
      "Ġvey": 3536,
      "ĠÄłappl": 3537,
      "Ġresh": 3538,
      "ĠÄłalleg": 3539,
      "Ġoving": 3540,
      "Ġoney": 3541,
      "Ġearing": 3542,
      "ĠÄłquest": 3543,
      "Ġellig": 3544,
      "Ġublic": 3545,
      "Ġaunt": 3546,
      "ĠÄłintern": 3547,
      "ĠÄłperp": 3548,
      "ĠÄłperform": 3549,
      "ĠÄłDev": 3550,
      "aps": 3551,
      "Ġaze": 3552,
      "ĠÄłArm": 3553,
      "ĠÄłArt": 3554,
      "Ġitted": 3555,
      "Ġribution": 3556,
      "ĠÄłconsult": 3557,
      "Ġeping": 3558,
      "ĠÄłExp": 3559,
      "Ġship": 3560,
      "ĠÄłtransl": 3561,
      "Ġups": 3562,
      "ĠÄłdiscl": 3563,
      "Ġrench": 3564,
      "Ġext": 3565,
      "ĠÄłdefin": 3566,
      "ĠÄłAdd": 3567,
      "ĠÄłAdv": 3568,
      "Ġapping": 3569,
      "Ġencies": 3570,
      "Ġlets": 3571,
      "Ġertain": 3572,
      "Ġattle": 3573,
      "ney": 3574,
      "rown": 3575,
      "ĠÄłgrand": 3576,
      "Ġhips": 3577,
      "ĠÄłrac": 3578,
      "ĠÄłrap": 3579,
      "Ġvention": 3580,
      "Ġinally": 3581,
      "ĠÄłparticip": 3582,
      "Ġenger": 3583,
      "rend": 3584,
      "Ġonym": 3585,
      "ĠÄłbreak": 3586,
      "ĠÄłfound": 3587,
      "ĠÄłcalcul": 3588,
      "Ġographic": 3589,
      "ĠÄłtermin": 3590,
      "ĠÄłprotect": 3591,
      "Ġapter": 3592,
      "Ġuke": 3593,
      "ĠÄłcann": 3594,
      "ĠÄłDisc": 3595,
      "ĠÄłÃĤÅĤ": 3596,
      "Ġinner": 3597,
      "Ġforce": 3598,
      "ĠComp": 3599,
      "ĠÄłCommun": 3600,
      "ĠÄłeduc": 3601,
      "ĠÄłcharact": 3602,
      "ĠÄłcircum": 3603,
      "Ġself": 3604,
      "ĠÄłprofess": 3605,
      "ĠÄłannoun": 3606,
      "ĠÄłillust": 3607,
      "Ġlished": 3608,
      "ĠÄłrespons": 3609,
      "ĠÄłobserv": 3610,
      "Ġatural": 3611,
      "Ġference": 3612,
      "ĠÄłoptim": 3613,
      "ĠÄłprogram": 3614,
      "Ġerence": 3615,
      "Ġerences": 3616,
      "ĠÄłcrypt": 3617,
      "Ġstein": 3618,
      "Ġ................": 3619,
      "ĠÄłinflu": 3620,
      "ĠÄłacknow": 3621,
      "11": 3622,
      "35": 3623,
      "38": 3624,
      "LE": 3625,
      "ault": 3626,
      "by": 3627,
      "gn": 3628,
      "gth": 3629,
      "ggest": 3630,
      "hus": 3631,
      "land": 3632,
      "mar": 3633,
      "nail": 3634,
      "sh": 3635,
      "sp": 3636,
      "wh": 3637,
      "°Åģ": 3638,
      "Â¾": 3639,
      "Ã¥": 3640,
      "Ġ^": 3641,
      "Ġ__": 3642,
      "Ġ____": 3643,
      "Ġ********": 3644,
      "ĠÄ©": 3645,
      "ĠÄ¬": 3646,
      "ĠÄ´": 3647,
      "ĠÄ¼": 3648,
      "ĠÄłess": 3649,
      "ĠÄłult": 3650,
      "ĠÄłright": 3651,
      "Ġael": 3652,
      "Ġequ": 3653,
      "ree": 3654,
      "Ġuing": 3655,
      "ines": 3656,
      "str": 3657,
      "stand": 3658,
      "Ġinct": 3659,
      "Ġinks": 3660,
      "Ġinations": 3661,
      "ĠÄłcas": 3662,
      "ĠÄłcart": 3663,
      "ĠÄłcivil": 3664,
      "ĠÄłsen": 3665,
      "ĠÄłsun": 3666,
      "Ġsl": 3667,
      "Ġsm": 3668,
      "ĠÄłpit": 3669,
      "ĠÄłpath": 3670,
      "arter": 3671,
      "arge": 3672,
      "Ġpo": 3673,
      "Ġpre": 3674,
      "Ġpan": 3675,
      "Ġpat": 3676,
      "Ġpress": 3677,
      "anch": 3678,
      "ingu": 3679,
      "orce": 3680,
      "ĠÄłdraw": 3681,
      "Ġlf": 3682,
      "Ġlook": 3683,
      "ĠÄłSP": 3684,
      "ĠÄłSn": 3685,
      "ĠÄłSun": 3686,
      "ĠÄłSil": 3687,
      "ĠÄłSum": 3688,
      "Ġano": 3689,
      "Ġaning": 3690,
      "Ġties": 3691,
      "ĠÄłCa": 3692,
      "ĠÄłCy": 3693,
      "ĠÄłCap": 3694,
      "ĠÄłCour": 3695,
      "Ġmak": 3696,
      "Ġitness": 3697,
      "Ġerve": 3698,
      "ĠÄłtow": 3699,
      "ĠÄłtab": 3700,
      "ĠÄłtreat": 3701,
      "ĠÄłthere": 3702,
      "Ġico": 3703,
      "Ġicles": 3704,
      "Ġicult": 3705,
      "Ġications": 3706,
      "Ġarry": 3707,
      "ĠÄłbra": 3708,
      "ĠÄłbec": 3709,
      "ĠÄłbreat": 3710,
      "ĠÄłmal": 3711,
      "ĠÄłmen": 3712,
      "ĠÄłmir": 3713,
      "ĠÄłmist": 3714,
      "ĠÄłmast": 3715,
      "ĠÄłmill": 3716,
      "ĠÄłmob": 3717,
      "ĠÄłmind": 3718,
      "ĠÄłmount": 3719,
      "rog": 3720,
      "Ġbal": 3721,
      "Ġht": 3722,
      "Ġhens": 3723,
      "Ġora": 3724,
      "Ġorial": 3725,
      "Ġorks": 3726,
      "Ġorgan": 3727,
      "ĠÄłfle": 3728,
      "ĠÄłfat": 3729,
      "ĠÄłfrag": 3730,
      "ĠÄłfasc": 3731,
      "ĠÄłreve": 3732,
      "Ġedd": 3733,
      "ĠÄłPen": 3734,
      "Ġrep": 3735,
      "Ġreal": 3736,
      "Ġreet": 3737,
      "Ġrection": 3738,
      "Ġreens": 3739,
      "ĠÄłAN": 3740,
      "ĠÄłAp": 3741,
      "ĠÄłAlex": 3742,
      "ĠÄłMel": 3743,
      "ĠÄłMem": 3744,
      "ĠÄłMot": 3745,
      "ĠÄłMiss": 3746,
      "ĠÄłMark": 3747,
      "Ġvy": 3748,
      "Ġvin": 3749,
      "Ġvest": 3750,
      "itt": 3751,
      "itect": 3752,
      "itiz": 3753,
      "ĠÄłBet": 3754,
      "ĠÄłBut": 3755,
      "Ġnam": 3756,
      "Ġnight": 3757,
      "ĠÃħ": 3758,
      "Ġgers": 3759,
      "Ġgment": 3760,
      "Ġgress": 3761,
      "Ġgreg": 3762,
      "Ġyan": 3763,
      "ĠÄłec": 3764,
      "ĠÄłeas": 3765,
      "ĠAs": 3766,
      "ĠAv": 3767,
      "Ġfol": 3768,
      "Ġfter": 3769,
      "Ġfall": 3770,
      "ĠÄłinhib": 3771,
      "ĠÄłRen": 3772,
      "ĠÄłRad": 3773,
      "ĠÄłRod": 3774,
      "Ġiser": 3775,
      "Ġalled": 3776,
      "Ġalys": 3777,
      "ĠÄłho": 3778,
      "ĠÄłhun": 3779,
      "ĠÄłhas": 3780,
      "ĠÄłhome": 3781,
      "ĠÄłDam": 3782,
      "ĠSP": 3783,
      "ĠSec": 3784,
      "ĠEG": 3785,
      "ĠEO": 3786,
      "ĠÄłgre": 3787,
      "ĠÄłground": 3788,
      "ĠÄłHigh": 3789,
      "ĠÄłLab": 3790,
      "ĠÄłli": 3791,
      "ĠÄłlay": 3792,
      "ĠÄłlight": 3793,
      "ĠÄłlong": 3794,
      "Ġwin": 3795,
      "Ġwise": 3796,
      "Ġdes": 3797,
      "Ġdis": 3798,
      "ĠÄłGra": 3799,
      "ĠÄłGener": 3800,
      "Ġaser": 3801,
      "Ġasure": 3802,
      "ĠCO": 3803,
      "ilar": 3804,
      "oler": 3805,
      "ĠÄłEll": 3806,
      "ĠÄłEth": 3807,
      "ĠÄłconver": 3808,
      "ĠPr": 3809,
      "ĠÄłown": 3810,
      "Ġking": 3811,
      "ĠÄłstre": 3812,
      "ĠÄłstab": 3813,
      "ĠÄłstru": 3814,
      "ĠÄłstren": 3815,
      "Ġolt": 3816,
      "Ġroup": 3817,
      "Ġrough": 3818,
      "ĠÄłnon": 3819,
      "ĠÄłnight": 3820,
      "ĠTA": 3821,
      "ĠTP": 3822,
      "ĠTS": 3823,
      "ĠThe": 3824,
      "ĠÄłIll": 3825,
      "Ġaby": 3826,
      "Ġabet": 3827,
      "ĠÄłWH": 3828,
      "ĠÄłWhe": 3829,
      "ĠÄłWill": 3830,
      "ĠÄłNet": 3831,
      "Ġethe": 3832,
      "Ġrant": 3833,
      "ription": 3834,
      "Ġiler": 3835,
      "Ġota": 3836,
      "Ġotic": 3837,
      "uld": 3838,
      "ĠRI": 3839,
      "ĠMar": 3840,
      "ĠMod": 3841,
      "Ġrig": 3842,
      "Ġrip": 3843,
      "Ġrier": 3844,
      "Ġrian": 3845,
      "Ġurity": 3846,
      "emon": 3847,
      "empt": 3848,
      "Ġado": 3849,
      "Ġaded": 3850,
      "Ġadow": 3851,
      "ĠÄłunp": 3852,
      "ĠBS": 3853,
      "oth": 3854,
      "oti": 3855,
      "ĠÄłvan": 3856,
      "ĠÄłvig": 3857,
      "ĠÄłvict": 3858,
      "ĠÄłdeal": 3859,
      "add": 3860,
      "ĠFC": 3861,
      "ĠFr": 3862,
      "Ġchan": 3863,
      "Ġchant": 3864,
      "Ġistry": 3865,
      "Ġums": 3866,
      "Ġomp": 3867,
      "Ġomin": 3868,
      "Ġomes": 3869,
      "Ġosure": 3870,
      "ĠÄłexhib": 3871,
      "ĠÄłexecut": 3872,
      "Ġulations": 3873,
      "Ġ46": 3874,
      "ĠÄłprohib": 3875,
      "ĠÄłprocess": 3876,
      "ĠÂ¡": 3877,
      "ĠÂ²": 3878,
      "ĠÂ·": 3879,
      "Ġelf": 3880,
      "irl": 3881,
      "Ġakers": 3882,
      "Ġuten": 3883,
      "ĠÄłVe": 3884,
      "ĠÄłVict": 3885,
      "Ġ05": 3886,
      "Ġ08": 3887,
      "Ġigs": 3888,
      "ĠÄłJul": 3889,
      "ĠÄłJoh": 3890,
      "ode": 3891,
      "ĠUD": 3892,
      "ĠÄłrh": 3893,
      "ĠÄłru": 3894,
      "ĠÄłrul": 3895,
      "ĠÄłrub": 3896,
      "ĠÄłsuff": 3897,
      "ĠÄłsuggest": 3898,
      "Ġirth": 3899,
      "ĠHA": 3900,
      "ĠHz": 3901,
      "Ġemy": 3902,
      "Ġowed": 3903,
      "ĠGB": 3904,
      "Ġzen": 3905,
      "Ġizard": 3906,
      "ĠÄłspir": 3907,
      "ĠÄłspect": 3908,
      "Ġested": 3909,
      "hern": 3910,
      "ĠÄłcook": 3911,
      "Ġapes": 3912,
      "ĠÄłshoot": 3913,
      "Ġaying": 3914,
      "Ġocument": 3915,
      "ĠÄłchem": 3916,
      "ĠÄłenh": 3917,
      "Ġodes": 3918,
      "ĠÄłStud": 3919,
      "Ġouch": 3920,
      "Ġvere": 3921,
      "Ġogn": 3922,
      "Ġsey": 3923,
      "Ġsequ": 3924,
      "Ġilla": 3925,
      "Ġiller": 3926,
      "ĠVE": 3927,
      "Ġjo": 3928,
      "Ġjust": 3929,
      "oper": 3930,
      "ĠÄłanim": 3931,
      "Ġavy": 3932,
      "Ġaven": 3933,
      "ĠÄłclin": 3934,
      "ĠÄłclos": 3935,
      "Ġanges": 3936,
      "Ġournal": 3937,
      "Ġcell": 3938,
      "ĠÄłreserv": 3939,
      "ivers": 3940,
      "ĠÄłkid": 3941,
      "ĠÄłkill": 3942,
      "ĠÄłkind": 3943,
      "ĠÄłtrust": 3944,
      "ĠÄłcontrad": 3945,
      "ĠÄłcontract": 3946,
      "Ġ))": 3947,
      "ĠÄłcomput": 3948,
      "Ġquer": 3949,
      "Ġacher": 3950,
      "Ġicket": 3951,
      "ĠÄłConf": 3952,
      "ĠÄłthr": 3953,
      "ĠÄłrot": 3954,
      "Ġighter": 3955,
      "Ġobe": 3956,
      "Ġacter": 3957,
      "Ġactive": 3958,
      "ĠÄłemph": 3959,
      "ĠÄłflo": 3960,
      "ĠÃ¢Ä¢Ä": 3961,
      "ĠÄłarri": 3962,
      "Ġancing": 3963,
      "ĠÄłÃĥ": 3964,
      "ĠÄłheav": 3965,
      "Ġphone": 3966,
      "Ġustom": 3967,
      "ĠÄłrecomm": 3968,
      "Ġresent": 3969,
      "ĠÄłintr": 3970,
      "ĠÄłintim": 3971,
      "ĠÄłintrodu": 3972,
      "Ġoved": 3973,
      "Ġoves": 3974,
      "aint": 3975,
      "ĠÄłdict": 3976,
      "Ġearch": 3977,
      "ĠÄłath": 3978,
      "Ġauc": 3979,
      "ĠÄłSpr": 3980,
      "ĠÄłDeb": 3981,
      "Ġgeon": 3982,
      "Ġazing": 3983,
      "ĠÄłimport": 3984,
      "Ġologist": 3985,
      "ĠÄłunt": 3986,
      "ournal": 3987,
      "ĠÄłtele": 3988,
      "Ġribe": 3989,
      "ĠÄłconsum": 3990,
      "ĠÄłaccess": 3991,
      "ĠÄłaccount": 3992,
      "Ġirect": 3993,
      "ĠERS": 3994,
      "ĠÄłtransform": 3995,
      "Ġintend": 3996,
      "Ġween": 3997,
      "Ġweet": 3998,
      "Ġixed": 3999,
      "Ġixel": 4000,
      "Ġrence": 4001,
      "ĠÄłattract": 4002,
      "ĠÄłrefer": 4003,
      "ake": 4004,
      "ĠÄłmanif": 4005,
      "ĠÄłmanufact": 4006,
      "ĠÄłrepresent": 4007,
      "Ġapped": 4008,
      "Ġrick": 4009,
      "Ġlete": 4010,
      "Ġpris": 4011,
      "ĠÄłbook": 4012,
      "ĠESS": 4013,
      "ĠEST": 4014,
      "ĠÄłexpect": 4015,
      "ĠÄłcorrect": 4016,
      "ĠÄłwho": 4017,
      "Ġcipl": 4018,
      "Ġprof": 4019,
      "ĠÄłenthus": 4020,
      "Ġumber": 4021,
      "ĠÄłforg": 4022,
      "ÃĥÄ¥ÃĥÄ¤ÃĥÄ¥ÃĥÄ¤ÃĥÄ¥ÃĥÄ¤": 4023,
      "Ġolly": 4024,
      "Ġollow": 4025,
      "Ġully": 4026,
      "Ġucks": 4027,
      "Ġinking": 4028,
      "Ġ???": 4029,
      "ĠÄłmechan": 4030,
      "ĠÄłeval": 4031,
      "ĠÄłinvol": 4032,
      "ĠÄłcolon": 4033,
      "Ġspect": 4034,
      "ĠÄłextra": 4035,
      "ĠÄłpartic": 4036,
      "Ġblem": 4037,
      "ĠALL": 4038,
      "ĠÄłcheck": 4039,
      "Ġrome": 4040,
      "Ġvelop": 4041,
      "Ġformation": 4042,
      "ĠÄłbuild": 4043,
      "ĠÄłmoder": 4044,
      "Ġccess": 4045,
      "ĠÄłfront": 4046,
      "ĠÄłrestrict": 4047,
      "Ġ++": 4048,
      "ĠÄłpropos": 4049,
      "Ġovered": 4050,
      "ĠÄłpolic": 4051,
      "ĠÄłpolit": 4052,
      "Ġette": 4053,
      "ĠÄłTechn": 4054,
      "ĠÄłpatri": 4055,
      "Ġiversity": 4056,
      "ĠÄłlegisl": 4057,
      "ĠÄłallow": 4058,
      "ĠAnd": 4059,
      "Ġirty": 4060,
      "ĠÄłContin": 4061,
      "ĠÄłsimpl": 4062,
      "uthor": 4063,
      "Ġmitted": 4064,
      "Ġhetic": 4065,
      "ĠÄłharm": 4066,
      "ĠSpe": 4067,
      "ĠÄłmotiv": 4068,
      "ĠÄłfree": 4069,
      "Ġreme": 4070,
      "ĠÄłestab": 4071,
      "ĠÄłvolunt": 4072,
      "ĠÄłnegoti": 4073,
      "Ġribute": 4074,
      "ĠAdd": 4075,
      "ĠÄłrespond": 4076,
      "ĠÃ¢Ä¸Äª": 4077,
      "lenn": 4078,
      "ĠEng": 4079,
      "prene": 4080,
      "ĠÄłmilit": 4081,
      "Ġolved": 4082,
      "Ġolves": 4083,
      "Ġ--------------------------------": 4084,
      "ĠÄłastron": 4085,
      "ĠÄłcritic": 4086,
      "ĠÄłlaun": 4087,
      "ĠÄłwithd": 4088,
      "Ġstanding": 4089,
      "ĠÄłsatisf": 4090,
      "ology": 4091,
      "Ġorous": 4092,
      "ĠÄładjust": 4093,
      "ĠÄłbomb": 4094,
      "ĠÄłdemonstr": 4095,
      "ĠÄłphilos": 4096,
      "ĠÄłcelebr": 4097,
      "ĠÄłperpet": 4098,
      "CH": 4099,
      "ENT": 4100,
      "IN": 4101,
      "aut": 4102,
      "aign": 4103,
      "augh": 4104,
      "ci": 4105,
      "cing": 4106,
      "cies": 4107,
      "gy": 4108,
      "ged": 4109,
      "ham": 4110,
      "hab": 4111,
      "hood": 4112,
      "ied": 4113,
      "joy": 4114,
      "lam": 4115,
      "light": 4116,
      "ma": 4117,
      "mp": 4118,
      "oid": 4119,
      "su": 4120,
      "ten": 4121,
      "uct": 4122,
      "uge": 4123,
      "uzz": 4124,
      "vent": 4125,
      "vironment": 4126,
      "war": 4127,
      "Â¡": 4128,
      "Â¤": 4129,
      "Ä§": 4130,
      "Ä¨": 4131,
      "Åĥ": 4132,
      "Ġ~": 4133,
      "Ġ==": 4134,
      "Ġ====": 4135,
      "Ġ//": 4136,
      "Ġ****": 4137,
      "Ġ________________": 4138,
      "ĠÄ®": 4139,
      "ĠÄ¿": 4140,
      "ĠÄłrig": 4141,
      "ĠÄłrid": 4142,
      "Ġoen": 4143,
      "Ġoil": 4144,
      "Ġopp": 4145,
      "Ġeffic": 4146,
      "erb": 4147,
      "eric": 4148,
      "rection": 4149,
      "Ġuge": 4150,
      "inct": 4151,
      "inem": 4152,
      "Ġini": 4153,
      "ĠÄłcam": 4154,
      "ĠÄłcow": 4155,
      "ĠÄłcard": 4156,
      "ĠÄłcall": 4157,
      "ĠÄłcast": 4158,
      "ĠÄłcell": 4159,
      "Ġrer": 4160,
      "Ġrat": 4161,
      "Ġrine": 4162,
      "Ġront": 4163,
      "Ġrors": 4164,
      "Ġrating": 4165,
      "lear": 4166,
      "ĠÄłsom": 4167,
      "ĠÄłsand": 4168,
      "ĠÄłsome": 4169,
      "ĠÄłsche": 4170,
      "Ġatin": 4171,
      "Ġatal": 4172,
      "edd": 4173,
      "Ġshe": 4174,
      "Ġserv": 4175,
      "alt": 4176,
      "ĠÄłpa": 4177,
      "ĠÄłpil": 4178,
      "ĠÄłpower": 4179,
      "Ġcre": 4180,
      "Ġcil": 4181,
      "Ġcies": 4182,
      "Ġcles": 4183,
      "Ġcript": 4184,
      "aries": 4185,
      "Ġpm": 4186,
      "Ġply": 4187,
      "ione": 4188,
      "orld": 4189,
      "ĠÄłdat": 4190,
      "ĠÄłdro": 4191,
      "ĠÄłdil": 4192,
      "Ġla": 4193,
      "Ġlor": 4194,
      "Ġlation": 4195,
      "Ġlam": 4196,
      "Ġlig": 4197,
      "Ġlock": 4198,
      "Ġlike": 4199,
      "ĠÄłSat": 4200,
      "ĠÄłSen": 4201,
      "ĠÄłSom": 4202,
      "ĠÄłSqu": 4203,
      "ĠÄłSab": 4204,
      "ĠÄłSoc": 4205,
      "Ġania": 4206,
      "Ġanche": 4207,
      "Ġtion": 4208,
      "Ġtop": 4209,
      "ĠÄłCe": 4210,
      "ĠÄłCre": 4211,
      "ĠÄłCreat": 4212,
      "Ġml": 4213,
      "Ġmal": 4214,
      "Ġmat": 4215,
      "Ġmun": 4216,
      "Ġmore": 4217,
      "Ġitle": 4218,
      "Ġitable": 4219,
      "Ġitiz": 4220,
      "Ġitute": 4221,
      "Ġingu": 4222,
      "Ġerm": 4223,
      "ĠÄłten": 4224,
      "ĠÄłtun": 4225,
      "ĠÄłtour": 4226,
      "ĠÄłtrig": 4227,
      "Ġicro": 4228,
      "Ġicity": 4229,
      "Ġicial": 4230,
      "Ġarl": 4231,
      "Ġarp": 4232,
      "Ġarant": 4233,
      "ĠÄłby": 4234,
      "ĠÄłble": 4235,
      "ĠÄłbor": 4236,
      "ĠÄłbol": 4237,
      "ĠÄłbank": 4238,
      "ĠÄłbott": 4239,
      "ĠÄłmit": 4240,
      "ĠÄłmom": 4241,
      "ĠÄłmur": 4242,
      "ĠÄłmay": 4243,
      "ĠÄłmax": 4244,
      "ĠÄłmarg": 4245,
      "ĠÄłmov": 4246,
      "ĠÄłmaj": 4247,
      "Ġbi": 4248,
      "Ġbu": 4249,
      "Ġbro": 4250,
      "Ġband": 4251,
      "Ġboy": 4252,
      "Ġhum": 4253,
      "Ġhod": 4254,
      "Ġhab": 4255,
      "Ġhouse": 4256,
      "Ġorg": 4257,
      "Ġoration": 4258,
      "Ġorter": 4259,
      "Ġorge": 4260,
      "Ġorage": 4261,
      "ĠÄłfing": 4262,
      "ĠÄłfur": 4263,
      "ĠÄłfra": 4264,
      "ĠÄłfig": 4265,
      "ĠÄłfab": 4266,
      "ĠÄłfall": 4267,
      "ĠÄłfoc": 4268,
      "ĠÄłfold": 4269,
      "ĠÄłfram": 4270,
      "ĠÄłfract": 4271,
      "ĠÄłfail": 4272,
      "ĠÄłfulf": 4273,
      "Ġena": 4274,
      "Ġenge": 4275,
      "ĠÄłrele": 4276,
      "ĠÄłrent": 4277,
      "ĠÄłreact": 4278,
      "ĠÄłrene": 4279,
      "Ġedy": 4280,
      "Ġedia": 4281,
      "ĠÄłPC": 4282,
      "ĠÄłPL": 4283,
      "ĠÄłPan": 4284,
      "ĠÄłPay": 4285,
      "ĠÄłPale": 4286,
      "Ġref": 4287,
      "Ġrett": 4288,
      "Ġrehens": 4289,
      "ĠÄłAM": 4290,
      "ĠÄłAP": 4291,
      "ĠÄłAS": 4292,
      "ĠÄłAw": 4293,
      "ĠÄłAud": 4294,
      "ĠÄłMat": 4295,
      "ĠÄłMart": 4296,
      "ĠÄłMah": 4297,
      "ĠÄłMich": 4298,
      "Ġvant": 4299,
      "Ġvironment": 4300,
      "itz": 4301,
      "itness": 4302,
      "ĠÄłBra": 4303,
      "ĠÄłBow": 4304,
      "ĠÄłBas": 4305,
      "Ġno": 4306,
      "Ġnect": 4307,
      "Ġnown": 4308,
      "ĠÃ¡": 4309,
      "ĠÃ£": 4310,
      "Ġgin": 4311,
      "Ġgar": 4312,
      "Ġye": 4313,
      "ĠÄłeff": 4314,
      "ĠÄłevery": 4315,
      "ĠÄłeffect": 4316,
      "ĠAb": 4317,
      "ĠAm": 4318,
      "ĠAct": 4319,
      "ĠAss": 4320,
      "Ġfig": 4321,
      "Ġfound": 4322,
      "ĠÄłindu": 4323,
      "ĠÄłRam": 4324,
      "ĠÄłRand": 4325,
      "ĠÄłRest": 4326,
      "ĠÄłRich": 4327,
      "Ġonom": 4328,
      "Ġisions": 4329,
      "ĠÄłTy": 4330,
      "ĠÄłTro": 4331,
      "ĠÄłTit": 4332,
      "ĠÄłTur": 4333,
      "ĠÄłTim": 4334,
      "ĠÄłTri": 4335,
      "ĠÄłhal": 4336,
      "ĠÄłhol": 4337,
      "ĠÄłhot": 4338,
      "ĠÄłhold": 4339,
      "ĠÄłDE": 4340,
      "ĠÄłDar": 4341,
      "ĠÄłDun": 4342,
      "ĠÄłDec": 4343,
      "ĠÄłDest": 4344,
      "Ġlean": 4345,
      "Ġlege": 4346,
      "urs": 4347,
      "ĠSS": 4348,
      "ĠSer": 4349,
      "ĠSim": 4350,
      "ĠEX": 4351,
      "ĠÄłgri": 4352,
      "ĠÄłgood": 4353,
      "ĠÄłHy": 4354,
      "ĠÄłHon": 4355,
      "ĠÄłHun": 4356,
      "celer": 4357,
      "ĠÄłFil": 4358,
      "ĠÄłForm": 4359,
      "ĠÄłFore": 4360,
      "ĠÄłLy": 4361,
      "ĠÄłLat": 4362,
      "ĠÄłLim": 4363,
      "ĠÄłLog": 4364,
      "ĠÄłLou": 4365,
      "ĠÄłline": 4366,
      "ĠÄłlik": 4367,
      "ĠÄłlook": 4368,
      "Ġwith": 4369,
      "Ġwide": 4370,
      "Ġwhere": 4371,
      "Ġda": 4372,
      "Ġdri": 4373,
      "Ġdef": 4374,
      "ĠÄłwin": 4375,
      "ĠÄłwat": 4376,
      "ĠÄłwel": 4377,
      "ĠÄłwind": 4378,
      "ĠÄłwild": 4379,
      "ĠÄłwrit": 4380,
      "ĠÄłwhere": 4381,
      "ĠÄłwater": 4382,
      "ĠÄłGi": 4383,
      "ĠÄłGood": 4384,
      "ilt": 4385,
      "ĠÄłEV": 4386,
      "ĠÄłEp": 4387,
      "ĠÄłEst": 4388,
      "ĠÄłEnt": 4389,
      "ĠÄłEqu": 4390,
      "ĠÄłEvery": 4391,
      "ĠOG": 4392,
      "ĠOV": 4393,
      "ĠOn": 4394,
      "ĠPre": 4395,
      "Ġagement": 4396,
      "ĠÄłox": 4397,
      "Ġkn": 4398,
      "Ġken": 4399,
      "ĠÄłster": 4400,
      "ĠÄłstere": 4401,
      "Ġola": 4402,
      "Ġolar": 4403,
      "Ġolut": 4404,
      "Ġroy": 4405,
      "Ġroad": 4406,
      "ĠÄłnorm": 4407,
      "ĠÄłnav": 4408,
      "ĠÄłnational": 4409,
      "ĠTR": 4410,
      "ĠText": 4411,
      "Ġablish": 4412,
      "Ġabilities": 4413,
      "ĠÄłWal": 4414,
      "Ġetic": 4415,
      "riv": 4416,
      "Ġotal": 4417,
      "Ġotion": 4418,
      "ĠML": 4419,
      "ĠMS": 4420,
      "ĠMet": 4421,
      "Ġriend": 4422,
      "Ġriage": 4423,
      "Ġription": 4424,
      "Ġurb": 4425,
      "Ġurance": 4426,
      "Ġady": 4427,
      "ĠDE": 4428,
      "ĠÄłunb": 4429,
      "Ġenty": 4430,
      "Ġented": 4431,
      "ĠBA": 4432,
      "ots": 4433,
      "ĠÄłvot": 4434,
      "ĠÄłvill": 4435,
      "ĠÄłvacc": 4436,
      "ade": 4437,
      "Ġ32": 4438,
      "ĠFL": 4439,
      "ĠÄłKn": 4440,
      "Ġchers": 4441,
      "Ġchie": 4442,
      "Ġchool": 4443,
      "Ġisted": 4444,
      "Ġistan": 4445,
      "Ġisters": 4446,
      "Ġistics": 4447,
      "Ġuman": 4448,
      "Ġoman": 4449,
      "ides": 4450,
      "Ġosit": 4451,
      "Ġosis": 4452,
      "ĠÄłexha": 4453,
      "Ġula": 4454,
      "Ġulf": 4455,
      "ĠÂ¬": 4456,
      "ĠÂ´": 4457,
      "Ġunes": 4458,
      "Ġunder": 4459,
      "ĠÄłOff": 4460,
      "ĠÄłOper": 4461,
      "irm": 4462,
      "irth": 4463,
      "Ġifer": 4464,
      "Ġifies": 4465,
      "Ġuty": 4466,
      "Ġuther": 4467,
      "Ġutions": 4468,
      "ĠÄłVen": 4469,
      "Ġigen": 4470,
      "Ġigation": 4471,
      "Ġigrant": 4472,
      "Ġacon": 4473,
      "ĠÄłJo": 4474,
      "ĠÄłJer": 4475,
      "ĠÄłJack": 4476,
      "ĠUG": 4477,
      "ĠUs": 4478,
      "ĠÄłrat": 4479,
      "ĠÄłris": 4480,
      "ĠÄłsust": 4481,
      "ĠNe": 4482,
      "ĠNet": 4483,
      "Ġemic": 4484,
      "ĠÄłdisg": 4485,
      "ĠÄłdispl": 4486,
      "ĠÄłdisag": 4487,
      "ĠGo": 4488,
      "ĠÄłspl": 4489,
      "ĠÄłspons": 4490,
      "Ġenders": 4491,
      "resh": 4492,
      "resp": 4493,
      "Ġainer": 4494,
      "Ġ90": 4495,
      "Ġople": 4496,
      "ĠÄłcost": 4497,
      "abin": 4498,
      "Ġapers": 4499,
      "Ġalling": 4500,
      "ĠÄłshut": 4501,
      "Ġocus": 4502,
      "Ġocol": 4503,
      "Ġandom": 4504,
      "ĠÄłchild": 4505,
      "ĠÄłUk": 4506,
      "ĠÄłUp": 4507,
      "ĠÄłenjoy": 4508,
      "Ġoded": 4509,
      "ĠÄłStar": 4510,
      "ĠÄłStep": 4511,
      "Ġought": 4512,
      "Ġoured": 4513,
      "ĠÄładapt": 4514,
      "Ġibl": 4515,
      "Ġograp": 4516,
      "Ġenses": 4517,
      "Ġensity": 4518,
      "Ġxx": 4519,
      "Ġiew": 4520,
      "ĠÄłRev": 4521,
      "Ġava": 4522,
      "Ġheast": 4523,
      "ĠÄłclaim": 4524,
      "Ġplate": 4525,
      "ĠÄłIns": 4526,
      "ĠÄłscript": 4527,
      "Ġceiv": 4528,
      "ĠÄłresist": 4529,
      "ĠÄłkey": 4530,
      "ĠÄłlead": 4531,
      "ĠÄłcontr": 4532,
      "ĠÄłcontra": 4533,
      "ĠÄłcontribut": 4534,
      "Ġctors": 4535,
      "Ġishes": 4536,
      "ĠÄłcompar": 4537,
      "Ġachel": 4538,
      "ĠÄłprep": 4539,
      "lesc": 4540,
      "ĠKe": 4541,
      "Ġessed": 4542,
      "ĠÄłCong": 4543,
      "ĠÄłthreat": 4544,
      "ube": 4545,
      "ublic": 4546,
      "ĠÄłrock": 4547,
      "Ġobile": 4548,
      "Ġacts": 4549,
      "Ġruption": 4550,
      "Ġorted": 4551,
      "Ġortion": 4552,
      "ĠÄłneuro": 4553,
      "ĠÄłflav": 4554,
      "Ġartment": 4555,
      "ĠÄłarm": 4556,
      "Ġ\",": 4557,
      "ĠÄłÃİ": 4558,
      "ĠÄłheart": 4559,
      "Ġusted": 4560,
      "ĠÄłrecip": 4561,
      "ĠÄłapplic": 4562,
      "ĠÄłappropri": 4563,
      "ĠÄłaltern": 4564,
      "Ġording": 4565,
      "ĠÄłdiagn": 4566,
      "ĠÄłquant": 4567,
      "Ġellow": 4568,
      "ĠÄłProf": 4569,
      "ĠÄłincomp": 4570,
      "ense": 4571,
      "Ġonse": 4572,
      "Ġaza": 4573,
      "Ġcome": 4574,
      "Ġcoming": 4575,
      "ĠÄłassum": 4576,
      "ĠÄłassist": 4577,
      "ĠÄłassass": 4578,
      "ĠÄłassert": 4579,
      "ĠÄłassoci": 4580,
      "ĠÄłClass": 4581,
      "Ġitte": 4582,
      "Ġittle": 4583,
      "ĠÄłteam": 4584,
      "Ġribed": 4585,
      "ĠÄłconsist": 4586,
      "ĠÄłconsider": 4587,
      "ĠÄłphen": 4588,
      "ĠÄłaccomp": 4589,
      "Ġtext": 4590,
      "ĠÄłExper": 4591,
      "ission": 4592,
      "Ġacement": 4593,
      "ĠÄłpron": 4594,
      "ĠÄłprin": 4595,
      "ĠÄłprint": 4596,
      "ĠÄłprinc": 4597,
      "ĠÄłampl": 4598,
      "ĠStud": 4599,
      "ĠÄłoblig": 4600,
      "Ġicted": 4601,
      "ĠÄłweak": 4602,
      "Ġerest": 4603,
      "ĠÄłcrim": 4604,
      "ĠÄłcommand": 4605,
      "Ġledge": 4606,
      "ĠÄłdiscuss": 4607,
      "ĠÄłdiscrim": 4608,
      "ĠÄłattack": 4609,
      "ĠÄłreflect": 4610,
      "Ġifications": 4611,
      "ĠÄłmanip": 4612,
      "ĠÄłmanag": 4613,
      "Ġults": 4614,
      "ertain": 4615,
      "Ġenced": 4616,
      "Ġounded": 4617,
      "Ġounding": 4618,
      "ĠÄłsurpr": 4619,
      "Ġanny": 4620,
      "Ġanned": 4621,
      "Ġannel": 4622,
      "ĠÄłboost": 4623,
      "ĠÄłwhis": 4624,
      "ĠÄłparam": 4625,
      "ĠÄłBlack": 4626,
      "Ġoster": 4627,
      "Ġprot": 4628,
      "ĠÄłtravel": 4629,
      "Ġrite": 4630,
      "Ġrition": 4631,
      "ĠÄłacad": 4632,
      "ĠÄłaccept": 4633,
      "ĠÄłacceler": 4634,
      "Ġumble": 4635,
      "ĠÄłregist": 4636,
      "ĠÄłsystem": 4637,
      "ĠÄłgui": 4638,
      "ĠÄłdepart": 4639,
      "Ġatern": 4640,
      "ĠÄłmean": 4641,
      "Ġlessly": 4642,
      "Ġector": 4643,
      "ĠÄłPhil": 4644,
      "ĠÄłPhot": 4645,
      "ĠÄłextrem": 4646,
      "ĠÄłEnd": 4647,
      "ĠÄłpresent": 4648,
      "Ġminist": 4649,
      "Ġotten": 4650,
      "Ġundred": 4651,
      "Ġinals": 4652,
      "ĠÄłasc": 4653,
      "ĠÄładvis": 4654,
      "ĠÄładvoc": 4655,
      "Ġarma": 4656,
      "ĠÄłreview": 4657,
      "Ġconnect": 4658,
      "ĠÄłexplo": 4659,
      "ĠÄłveter": 4660,
      "ĠÄłdemocr": 4661,
      "Ġength": 4662,
      "ĠÄłbuff": 4663,
      "Ġgged": 4664,
      "Ġduct": 4665,
      "ĠÄłoffic": 4666,
      "ĠÄłbrew": 4667,
      "ĠÄłfoll": 4668,
      "ĠÄłelim": 4669,
      "Ġounce": 4670,
      "Ġitches": 4671,
      "ĠACK": 4672,
      "ĠÄłspecific": 4673,
      "Ġarchy": 4674,
      "ĠÄłFrank": 4675,
      "ĠÄłconcent": 4676,
      "ĠÄłconstruct": 4677,
      "ĠÄłknow": 4678,
      "ĠÄłpurch": 4679,
      "Ġlines": 4680,
      "ĠÄłencour": 4681,
      "Ġohn": 4682,
      "Ġpected": 4683,
      "ĠÄłperson": 4684,
      "ĠComm": 4685,
      "Ġsecut": 4686,
      "ĠÄłapolog": 4687,
      "Ġiency": 4688,
      "ĠÄłsecret": 4689,
      "ĠÄłcondem": 4690,
      "Ġ---": 4691,
      "Ġuthor": 4692,
      "Ġlements": 4693,
      "ĠÄłopen": 4694,
      "ĠÄłutil": 4695,
      "ĠÄłclean": 4696,
      "ĠÄłSurv": 4697,
      "ĠÄłtrou": 4698,
      "ragon": 4699,
      "Ġclusion": 4700,
      "Ġclusive": 4701,
      "ĠÄłsubsid": 4702,
      "ĠÄłdifferent": 4703,
      "ĠÄłhero": 4704,
      "ĠIGH": 4705,
      "oung": 4706,
      "Ġrooms": 4707,
      "ĠÄłfavor": 4708,
      "ĠÄłiniti": 4709,
      "ĠÄłabsor": 4710,
      "Ġcommun": 4711,
      "ĠÄłpublic": 4712,
      "Ġiveness": 4713,
      "ĠÄłcampaign": 4714,
      "ĠÄłPerson": 4715,
      "Ġigration": 4716,
      "onald": 4717,
      "ĠÄłdocument": 4718,
      "ĠÄłbrief": 4719,
      "Ġville": 4720,
      "Ġotype": 4721,
      "ĠÄłvirt": 4722,
      "Ġividual": 4723,
      "Ġicians": 4724,
      "ĠÄłafter": 4725,
      "ĠÄłhistor": 4726,
      "ĠÄłincorpor": 4727,
      "ĠÄłtherap": 4728,
      "ĠÄłBudd": 4729,
      "ĠÃ¢Ä¶Ä¢Ã¢Ä¶Ä¢": 4730,
      "ĠÄłcharacter": 4731,
      "ĠÄłacknowled": 4732,
      "ĠÄłemphas": 4733,
      "Ġceived": 4734,
      ",,": 4735,
      "50": 4736,
      "::": 4737,
      "@@": 4738,
      "AL": 4739,
      "GG": 4740,
      "IS": 4741,
      "OD": 4742,
      "ae": 4743,
      "ared": 4744,
      "aud": 4745,
      "ause": 4746,
      "cer": 4747,
      "cle": 4748,
      "cious": 4749,
      "dom": 4750,
      "eb": 4751,
      "ez": 4752,
      "eal": 4753,
      "fl": 4754,
      "fect": 4755,
      "fort": 4756,
      "iat": 4757,
      "ipp": 4758,
      "iff": 4759,
      "ience": 4760,
      "ki": 4761,
      "lor": 4762,
      "line": 4763,
      "mon": 4764,
      "na": 4765,
      "of": 4766,
      "oud": 4767,
      "ps": 4768,
      "pir": 4769,
      "pret": 4770,
      "ring": 4771,
      "uff": 4772,
      "vant": 4773,
      "xual": 4774,
      "yl": 4775,
      "ym": 4776,
      "Â¬": 4777,
      "Â¶": 4778,
      "Â¹": 4779,
      "Ãĥ": 4780,
      "Ä¯": 4781,
      "Ä±": 4782,
      "Ä¼": 4783,
      "ÄŃ": 4784,
      "Ġ##": 4785,
      "Ġ########": 4786,
      "Ġ~~~~": 4787,
      "Ġ////////": 4788,
      "ĠÄ½": 4789,
      "ĠÄłx": 4790,
      "ĠÄłil": 4791,
      "Ġira": 4792,
      "Ġiel": 4793,
      "Ġiod": 4794,
      "Ġaed": 4795,
      "Ġaus": 4796,
      "Ġaver": 4797,
      "Ġaign": 4798,
      "Ġaire": 4799,
      "Ġaith": 4800,
      "Ġoz": 4801,
      "Ġopt": 4802,
      "Ġean": 4803,
      "Ġeper": 4804,
      "Ġeah": 4805,
      "reprene": 4806,
      "onom": 4807,
      "onder": 4808,
      "Ġuh": 4809,
      "Ġuit": 4810,
      "Ġuce": 4811,
      "Ġupp": 4812,
      "Ġuly": 4813,
      "Ġuction": 4814,
      "Ġuated": 4815,
      "Ġufact": 4816,
      "inn": 4817,
      "iness": 4818,
      "Ġinent": 4819,
      "Ġinos": 4820,
      "Ġinth": 4821,
      "ĠÄłcut": 4822,
      "ĠÄłcig": 4823,
      "ĠÄłcere": 4824,
      "ĠÄłcateg": 4825,
      "Ġrust": 4826,
      "Ġrical": 4827,
      "Ġrations": 4828,
      "Ġrates": 4829,
      "ĠÄłsin": 4830,
      "ĠÄłsam": 4831,
      "ĠÄłsid": 4832,
      "ĠÄłsav": 4833,
      "ĠÄłsne": 4834,
      "ĠÄłside": 4835,
      "ĠÄłsoph": 4836,
      "Ġatform": 4837,
      "aly": 4838,
      "alle": 4839,
      "allen": 4840,
      "ĠÄłpan": 4841,
      "ĠÄłpra": 4842,
      "ĠÄłpow": 4843,
      "ĠÄłpip": 4844,
      "ĠÄłpled": 4845,
      "ĠÄłpick": 4846,
      "ĠÄłparent": 4847,
      "ĠÄłpione": 4848,
      "Ġcs": 4849,
      "Ġcar": 4850,
      "Ġcut": 4851,
      "Ġcos": 4852,
      "Ġcip": 4853,
      "Ġcription": 4854,
      "arant": 4855,
      "Ġped": 4856,
      "Ġpers": 4857,
      "Ġpire": 4858,
      "Ġpath": 4859,
      "Ġpret": 4860,
      "Ġpite": 4861,
      "Ġpecial": 4862,
      "ann": 4863,
      "orith": 4864,
      "ĠÄłdu": 4865,
      "ĠÄłdark": 4866,
      "ĠÄłdram": 4867,
      "Ġlt": 4868,
      "Ġlers": 4869,
      "Ġlog": 4870,
      "Ġliv": 4871,
      "Ġlict": 4872,
      "Ġlier": 4873,
      "ĠÄłSet": 4874,
      "ĠÄłSand": 4875,
      "ĠÄłSher": 4876,
      "ĠÄłSant": 4877,
      "ĠÄłSac": 4878,
      "ĠÄłSav": 4879,
      "ĠÄłSign": 4880,
      "ĠÄłSome": 4881,
      "ature": 4882,
      "Ġanes": 4883,
      "Ġtw": 4884,
      "Ġtle": 4885,
      "ĠÄłCH": 4886,
      "ĠÄłCle": 4887,
      "ĠÄłCel": 4888,
      "ĠÄłCos": 4889,
      "ĠÄłCru": 4890,
      "ĠÄłCost": 4891,
      "ĠÄłCath": 4892,
      "ĠÄłCount": 4893,
      "Ġmes": 4894,
      "Ġmary": 4895,
      "Ġmail": 4896,
      "Ġmber": 4897,
      "Ġitors": 4898,
      "Ġitarian": 4899,
      "Ġinge": 4900,
      "Ġerk": 4901,
      "Ġerr": 4902,
      "ency": 4903,
      "ĠÄłtal": 4904,
      "ĠÄłtit": 4905,
      "ĠÄłtum": 4906,
      "ĠÄłtack": 4907,
      "ĠÄłtight": 4908,
      "ĠÄłtact": 4909,
      "ĠÄłtarg": 4910,
      "ĠÄłtoler": 4911,
      "Ġician": 4912,
      "Ġicious": 4913,
      "Ġicular": 4914,
      "ĠÄłax": 4915,
      "ĠÄłaer": 4916,
      "ĠÄłare": 4917,
      "Ġaru": 4918,
      "Ġarer": 4919,
      "Ġarre": 4920,
      "Ġarity": 4921,
      "ĠÄłbed": 4922,
      "ĠÄłbes": 4923,
      "ĠÄłbot": 4924,
      "ĠÄłbad": 4925,
      "ĠÄłbig": 4926,
      "ĠÄłbure": 4927,
      "ĠÄłboy": 4928,
      "ĠÄłbond": 4929,
      "ĠÄłbrow": 4930,
      "ĠÄłburn": 4931,
      "ĠÄłmun": 4932,
      "ĠÄłmand": 4933,
      "ĠÄłmig": 4934,
      "ĠÄłmath": 4935,
      "ĠÄłmasc": 4936,
      "ĠÄłmurd": 4937,
      "ĠÄłmamm": 4938,
      "ĠÄłmyster": 4939,
      "roll": 4940,
      "rough": 4941,
      "Ġbar": 4942,
      "Ġbel": 4943,
      "Ġbow": 4944,
      "Ġbec": 4945,
      "Ġbrid": 4946,
      "Ġhent": 4947,
      "Ġhers": 4948,
      "Ġhow": 4949,
      "Ġhist": 4950,
      "Ġhop": 4951,
      "Ġhost": 4952,
      "Ġhaps": 4953,
      "Ġoric": 4954,
      "Ġorig": 4955,
      "Ġorry": 4956,
      "Ġorrow": 4957,
      "Ġorld": 4958,
      "ĠÄłfer": 4959,
      "ĠÄłfar": 4960,
      "ĠÄłfol": 4961,
      "ĠÄłfant": 4962,
      "ĠÄłfert": 4963,
      "ĠÄłfull": 4964,
      "ĠÄłfurn": 4965,
      "ĠÄłfield": 4966,
      "ĠÄłfix": 4967,
      "ĠÄłfriend": 4968,
      "ĠÄłfresh": 4969,
      "ĠÄłreck": 4970,
      "ĠÄłreper": 4971,
      "ĠÄłreject": 4972,
      "ĠÄłrecept": 4973,
      "ĠÄłreason": 4974,
      "ention": 4975,
      "Ġedom": 4976,
      "ĠÄłPa": 4977,
      "ĠÄłPy": 4978,
      "ĠÄłPot": 4979,
      "ĠÄłPred": 4980,
      "ĠÄłPark": 4981,
      "ĠÄłPost": 4982,
      "ĠÄłAC": 4983,
      "ĠÄłAD": 4984,
      "ĠÄłAR": 4985,
      "ĠÄłAz": 4986,
      "ĠÄłAst": 4987,
      "ĠÄłAra": 4988,
      "ĠÄłAir": 4989,
      "ĠÄłAth": 4990,
      "ĠÄłAug": 4991,
      "ĠÄłMP": 4992,
      "ĠÄłMS": 4993,
      "ĠÄłMic": 4994,
      "ĠÄłMir": 4995,
      "ĠÄłMort": 4996,
      "ĠÄłMess": 4997,
      "ĠÄłMont": 4998,
      "Ġvation": 4999,
      "unction": 5000,
      "ĠÄłBol": 5001,
      "ĠÄłBund": 5002,
      "ĠÄłBang": 5003,
      "ĠÄłBern": 5004,
      "ompl": 5005,
      "Ġnic": 5006,
      "Ġgn": 5007,
      "Ġgent": 5008,
      "Ġgun": 5009,
      "Ġgest": 5010,
      "Ġgram": 5011,
      "Ġgener": 5012,
      "ĠÄłeffic": 5013,
      "ĠÄłearth": 5014,
      "ĠAF": 5015,
      "ĠAll": 5016,
      "ĠAust": 5017,
      "Ġfast": 5018,
      "Ġfriend": 5019,
      "Ġfront": 5020,
      "ĠÄłinqu": 5021,
      "ĠÄłinher": 5022,
      "ĠÄłinject": 5023,
      "ĠÄłinex": 5024,
      "ĠÄłRa": 5025,
      "ĠÄłRun": 5026,
      "ĠÄłRub": 5027,
      "ĠÄłRock": 5028,
      "Ġona": 5029,
      "Ġonge": 5030,
      "Ġonents": 5031,
      "Ġonna": 5032,
      "Ġisan": 5033,
      "Ġisher": 5034,
      "Ġisode": 5035,
      "Ġali": 5036,
      "Ġalle": 5037,
      "Ġalog": 5038,
      "ĠÄłTR": 5039,
      "ĠÄłTan": 5040,
      "ĠÄłTom": 5041,
      "ĠÄłTurn": 5042,
      "ĠÄłhes": 5043,
      "ĠÄłhab": 5044,
      "ĠÄłhall": 5045,
      "ĠÄłDO": 5046,
      "ĠÄłDen": 5047,
      "ĠÄłDri": 5048,
      "ĠÄłDist": 5049,
      "ĠÄłDiv": 5050,
      "ĠÄłDav": 5051,
      "ĠÄłDown": 5052,
      "Ġlear": 5053,
      "Ġleas": 5054,
      "Ġleep": 5055,
      "urg": 5056,
      "ury": 5057,
      "chron": 5058,
      "ĠSu": 5059,
      "ĠEW": 5060,
      "ĠEd": 5061,
      "ĠEl": 5062,
      "ett": 5063,
      "ether": 5064,
      "ĠÄłgal": 5065,
      "ĠÄłgall": 5066,
      "ĠÄłgreat": 5067,
      "ĠÄłgrow": 5068,
      "ĠÄłgraph": 5069,
      "rain": 5070,
      "rass": 5071,
      "racy": 5072,
      "ĠÄłHD": 5073,
      "ĠÄłHom": 5074,
      "ĠÄłHol": 5075,
      "ĠÄłHow": 5076,
      "ĠÄłHand": 5077,
      "ĠÄłHum": 5078,
      "ĠÄłHist": 5079,
      "ĠÄłHard": 5080,
      "ĠÄłHold": 5081,
      "cest": 5082,
      "ĠÄłFar": 5083,
      "ĠÄłFred": 5084,
      "ĠÄłFall": 5085,
      "ĠÄłFound": 5086,
      "ĠÄłLaw": 5087,
      "ĠÄłlat": 5088,
      "ĠÄłlow": 5089,
      "ĠÄłlive": 5090,
      "ĠÄłlack": 5091,
      "ĠÄłload": 5092,
      "ĠÄłlock": 5093,
      "ĠÄłliter": 5094,
      "Ġwer": 5095,
      "Ġwar": 5096,
      "Ġwing": 5097,
      "Ġwind": 5098,
      "Ġwood": 5099,
      "Ġwich": 5100,
      "Ġworks": 5101,
      "Ġds": 5102,
      "Ġden": 5103,
      "Ġdit": 5104,
      "Ġdem": 5105,
      "Ġdog": 5106,
      "Ġdated": 5107,
      "ĠÄłwra": 5108,
      "ĠÄłwond": 5109,
      "ĠÄłwrest": 5110,
      "ĠÄłGer": 5111,
      "ĠÄłGal": 5112,
      "ĠÄłGri": 5113,
      "ĠÄłGam": 5114,
      "ĠÄłGold": 5115,
      "Ġasant": 5116,
      "Ġasons": 5117,
      "Ġasures": 5118,
      "ĠCS": 5119,
      "ĠCons": 5120,
      "ilit": 5121,
      "olution": 5122,
      "ĠÄłEs": 5123,
      "ĠÄłEar": 5124,
      "ĠÄłEconom": 5125,
      "Ġidth": 5126,
      "iment": 5127,
      "ĠOb": 5128,
      "ĠÄłconce": 5129,
      "ĠÄłconcept": 5130,
      "ĠÄłconduct": 5131,
      "ĠÄłcongr": 5132,
      "ĠPA": 5133,
      "ĠPG": 5134,
      "ĠPU": 5135,
      "ĠPer": 5136,
      "ĠPar": 5137,
      "Ġesis": 5138,
      "Ġesome": 5139,
      "Ġagu": 5140,
      "Ġagan": 5141,
      "Ġagger": 5142,
      "Ġka": 5143,
      "Ġker": 5144,
      "Ġkes": 5145,
      "Ġkay": 5146,
      "ĠÄłsty": 5147,
      "ĠÄłstra": 5148,
      "ĠÄłstick": 5149,
      "ĠÄłstruct": 5150,
      "ĠÄłstream": 5151,
      "ĠÄłstret": 5152,
      "ĠÄłstaff": 5153,
      "Ġolk": 5154,
      "Ġols": 5155,
      "Ġolid": 5156,
      "Ġolute": 5157,
      "Ġrous": 5158,
      "Ġroud": 5159,
      "ĠÄłnu": 5160,
      "ĠÄłnin": 5161,
      "ĠÄłnic": 5162,
      "ĠÄłnet": 5163,
      "ĠÄłnecess": 5164,
      "Ġabs": 5165,
      "Ġabin": 5166,
      "Ġabor": 5167,
      "Ġabel": 5168,
      "Ġabase": 5169,
      "ĠÄłWil": 5170,
      "ĠÄłWind": 5171,
      "ĠÄłWood": 5172,
      "ĠÄłWild": 5173,
      "ĠÄłWik": 5174,
      "ĠÄłNE": 5175,
      "ĠÄłNY": 5176,
      "ĠÄłNik": 5177,
      "Ġety": 5178,
      "Ġetch": 5179,
      "Ġeters": 5180,
      "Ġetary": 5181,
      "Ġrac": 5182,
      "Ġrast": 5183,
      "Ġraction": 5184,
      "Ġraint": 5185,
      "Ġilation": 5186,
      "Ġilater": 5187,
      "uls": 5188,
      "ĠRel": 5189,
      "ĠRem": 5190,
      "ĠRef": 5191,
      "ĠMA": 5192,
      "ĠMed": 5193,
      "ĠMan": 5194,
      "ĠMag": 5195,
      "Ġurrent": 5196,
      "ements": 5197,
      "Ġsts": 5198,
      "Ġsters": 5199,
      "Ġstem": 5200,
      "Ġstate": 5201,
      "Ġstru": 5202,
      "Ġstone": 5203,
      "Ġstream": 5204,
      "Ġadi": 5205,
      "Ġadel": 5206,
      "Ġaders": 5207,
      "lymp": 5208,
      "ĠDA": 5209,
      "ĠDS": 5210,
      "ĠDes": 5211,
      "ĠDet": 5212,
      "ĠDep": 5213,
      "ĠDonald": 5214,
      "ama": 5215,
      "ĠÄłunint": 5216,
      "ĠÄłunex": 5217,
      "ĠÄłunivers": 5218,
      "ĠBr": 5219,
      "Ġusal": 5220,
      "ĠÄłvo": 5221,
      "ĠÄłvent": 5222,
      "ĠÄłvit": 5223,
      "ĠÄłvul": 5224,
      "ĠÄłvib": 5225,
      "ĠÄłdead": 5226,
      "ĠÄłdeep": 5227,
      "ĠÄłdeleg": 5228,
      "ĠÄłdeploy": 5229,
      "Ġiments": 5230,
      "ĠFO": 5231,
      "ĠFT": 5232,
      "ĠFor": 5233,
      "ĠFOR": 5234,
      "ĠÄłKat": 5235,
      "ĠÄłKir": 5236,
      "Ġcho": 5237,
      "Ġchem": 5238,
      "Ġcharg": 5239,
      "Ġistent": 5240,
      "Ġistence": 5241,
      "Ġistance": 5242,
      "Ġumm": 5243,
      "Ġumes": 5244,
      "Ġuming": 5245,
      "ĠLC": 5246,
      "ĠLS": 5247,
      "Ġomy": 5248,
      "Ġomen": 5249,
      "Ġomic": 5250,
      "Ġosen": 5251,
      "ĠÄłexec": 5252,
      "ĠÄłexist": 5253,
      "ĠÄłexceed": 5254,
      "ĠÄłexerc": 5255,
      "Ġulating": 5256,
      "ĠÄłprol": 5257,
      "ĠÄłproduct": 5258,
      "ĠÄłproceed": 5259,
      "Ġela": 5260,
      "Ġelve": 5261,
      "Ġeland": 5262,
      "Ġunn": 5263,
      "Ġunct": 5264,
      "ĠÄłOn": 5265,
      "ĠÄłOp": 5266,
      "ĠÄłOver": 5267,
      "ĠÄłOcc": 5268,
      "ĠÄłOrig": 5269,
      "ĠÄłOffic": 5270,
      "ĠÄłOlymp": 5271,
      "irst": 5272,
      "Ġanta": 5273,
      "Ġutch": 5274,
      "Ġutter": 5275,
      "Ġuture": 5276,
      "ĠÄłVis": 5277,
      "ĠÄłVir": 5278,
      "vere": 5279,
      "Ġ56": 5280,
      "Ġ04": 5281,
      "Ġaco": 5282,
      "Ġacity": 5283,
      "Ġatever": 5284,
      "ĠÄłJac": 5285,
      "ĠÄłJenn": 5286,
      "odox": 5287,
      "ĠUI": 5288,
      "ĠUp": 5289,
      "ĠÄłrum": 5290,
      "ĠÄłsuc": 5291,
      "ĠÄłsup": 5292,
      "Ġirit": 5293,
      "ternal": 5294,
      "ĠNA": 5295,
      "ĠNot": 5296,
      "Ġemploy": 5297,
      "ĠÄłdisrupt": 5298,
      "ĠGr": 5299,
      "ĠGu": 5300,
      "Ġza": 5301,
      "Ġzb": 5302,
      "Ġzed": 5303,
      "ays": 5304,
      "Ġizations": 5305,
      "ĠÄłspo": 5306,
      "Ġester": 5307,
      "Ġestic": 5308,
      "Ġestern": 5309,
      "Ġivil": 5310,
      "Ġaine": 5311,
      "Ġ89": 5312,
      "ĠWith": 5313,
      "Ġ96": 5314,
      "ĠÄłcos": 5315,
      "ĠÄłcool": 5316,
      "ĠÄłcoinc": 5317,
      "ĠÄłcooper": 5318,
      "abet": 5319,
      "Ġaph": 5320,
      "Ġaped": 5321,
      "Ġaping": 5322,
      "ĠÄłshel": 5323,
      "Ġayers": 5324,
      "plom": 5325,
      "Ġocated": 5326,
      "Ġandon": 5327,
      "Ġandal": 5328,
      "ĠÄłcharg": 5329,
      "ĠÄłchamp": 5330,
      "ĠÄłchallen": 5331,
      "ĠÄłUlt": 5332,
      "ester": 5333,
      "ĠÄłener": 5334,
      "Ġoding": 5335,
      "Ġodies": 5336,
      "Ġodge": 5337,
      "Ġoub": 5338,
      "Ġounter": 5339,
      "Ġthough": 5340,
      "ĠÄładop": 5341,
      "ĠÄładvert": 5342,
      "Ġogg": 5343,
      "Ġogy": 5344,
      "Ġogle": 5345,
      "Ġogether": 5346,
      "Ġsee": 5347,
      "Ġsell": 5348,
      "Ġasted": 5349,
      "Ġasting": 5350,
      "Ġasters": 5351,
      "ĠVID": 5352,
      "Ġiph": 5353,
      "Ġiper": 5354,
      "Ġipher": 5355,
      "Ġxual": 5356,
      "Ġiev": 5357,
      "Ġiece": 5358,
      "Ġarden": 5359,
      "Ġji": 5360,
      "ĠÄłReb": 5361,
      "ĠÄłRead": 5362,
      "ĠÄłans": 5363,
      "ĠÄłancest": 5364,
      "ĠÄłimper": 5365,
      "Ġaved": 5366,
      "Ġaval": 5367,
      "Ġhew": 5368,
      "ĠÄłcler": 5369,
      "Ġpload": 5370,
      "ĠÄłsee": 5371,
      "ĠÄłseem": 5372,
      "ĠÄłInqu": 5373,
      "Ġangel": 5374,
      "Ġourge": 5375,
      "Ġourse": 5376,
      "ĠÄłscre": 5377,
      "ĠÄłscen": 5378,
      "ĠÄłscient": 5379,
      "ĠÄłscreen": 5380,
      "Ġceed": 5381,
      "ĠÄłjo": 5382,
      "ĠÄłjur": 5383,
      "ĠÄłjournal": 5384,
      "ĠÄłresc": 5385,
      "ĠÄłrese": 5386,
      "ĠÄłresid": 5387,
      "ĠÄłresult": 5388,
      "ĠÄłresemb": 5389,
      "ĠÄłresear": 5390,
      "ival": 5391,
      "ivid": 5392,
      "ivity": 5393,
      "ĠÄłkil": 5394,
      "ĠÄłkick": 5395,
      "Ġcling": 5396,
      "Ġclip": 5397,
      "Ġclass": 5398,
      "ĠÄłless": 5399,
      "Ġishop": 5400,
      "Ġorse": 5401,
      "ĠÄłcomplex": 5402,
      "ĠÄłcomprom": 5403,
      "ĠÄłpret": 5404,
      "ĠÄłpreced": 5405,
      "Ġessions": 5406,
      "Ġicked": 5407,
      "Ġicken": 5408,
      "ĠÄłthem": 5409,
      "ĠÄłroad": 5410,
      "ĠÄłround": 5411,
      "Ġighth": 5412,
      "Ġobi": 5413,
      "Ġobs": 5414,
      "Ġober": 5415,
      "Ġobal": 5416,
      "Ġactions": 5417,
      "Ġrup": 5418,
      "Ġruit": 5419,
      "Ġorters": 5420,
      "Ġials": 5421,
      "Ġacket": 5422,
      "ĠÄłplug": 5423,
      "ĠÄłemot": 5424,
      "ĠÄłflash": 5425,
      "Ġancer": 5426,
      "Ġancial": 5427,
      "ĠÄłÃ¨": 5428,
      "Ġaren": 5429,
      "Ġarett": 5430,
      "Ġansion": 5431,
      "ĠÄłblog": 5432,
      "ĠÄłblack": 5433,
      "Ġpha": 5434,
      "Ġpton": 5435,
      "ĠÄłrecru": 5436,
      "ĠÄłrecord": 5437,
      "Ġneg": 5438,
      "Ġnex": 5439,
      "Ġassad": 5440,
      "Ġocking": 5441,
      "ĠÄłappoint": 5442,
      "ĠÄłappear": 5443,
      "rug": 5444,
      "ĠÄłalt": 5445,
      "ĠÄłalter": 5446,
      "ĠÄłbegin": 5447,
      "Ġller": 5448,
      "Ġorders": 5449,
      "ĠÄłYan": 5450,
      "ĠÄłdiplom": 5451,
      "Ġashes": 5452,
      "ĠÄłque": 5453,
      "Ġawa": 5454,
      "Ġaws": 5455,
      "Ġelly": 5456,
      "Ġelling": 5457,
      "ĠÄłProm": 5458,
      "ĠÄłincons": 5459,
      "ĠÄłinclud": 5460,
      "ĠÄłinterf": 5461,
      "ĠÄłinterest": 5462,
      "ĠÄłinterview": 5463,
      "Ġideo": 5464,
      "Ġikh": 5465,
      "Ġiki": 5466,
      "Ġikes": 5467,
      "ensive": 5468,
      "duc": 5469,
      "Ġaily": 5470,
      "Ġailable": 5471,
      "Ġailability": 5472,
      "ĠÄłAnn": 5473,
      "ĠÄłslow": 5474,
      "ĠÄłpoint": 5475,
      "ĠÄłimplement": 5476,
      "Ġinson": 5477,
      "Ġologies": 5478,
      "Ġologically": 5479,
      "Ġugs": 5480,
      "ĠÄłassess": 5481,
      "ĠÄłassign": 5482,
      "ĠÄłAlb": 5483,
      "Ġisms": 5484,
      "ĠÄłLear": 5485,
      "Ġkee": 5486,
      "Ġitty": 5487,
      "Ġitten": 5488,
      "Ġalse": 5489,
      "ĠÄłconserv": 5490,
      "ĠÄłconsequ": 5491,
      "ĠÄłpharm": 5492,
      "ĠÄłaccum": 5493,
      "ĠÄłaccomm": 5494,
      "ĠÄłaccompl": 5495,
      "ĠÄłinsert": 5496,
      "ĠÄłinspect": 5497,
      "Ġteen": 5498,
      "ĠÄłindust": 5499,
      "ĠÄłindep": 5500,
      "Ġework": 5501,
      "ĠSte": 5502,
      "ĠStream": 5503,
      "ĠERE": 5504,
      "Ġictions": 5505,
      "ĠÄłweb": 5506,
      "ĠÄłweek": 5507,
      "ĠÄłovert": 5508,
      "ĠÄłoverwh": 5509,
      "Ġerent": 5510,
      "Ġarsh": 5511,
      "ĠÄłdiscipl": 5512,
      "Ġathan": 5513,
      "Ġatively": 5514,
      "Ġrend": 5515,
      "ĠÄłattend": 5516,
      "ĠÄłrefere": 5517,
      "aking": 5518,
      "Ġiox": 5519,
      "Ġpse": 5520,
      "ording": 5521,
      "ĠÄłreport": 5522,
      "ĠÄłreprodu": 5523,
      "ĠÄłScient": 5524,
      "Ġffect": 5525,
      "Ġulture": 5526,
      "Ġultural": 5527,
      "ĠXX": 5528,
      "Ġappy": 5529,
      "Ġappropri": 5530,
      "Ġrich": 5531,
      "ĠÄłdesp": 5532,
      "ĠÄłtox": 5533,
      "Ġencing": 5534,
      "ĠART": 5535,
      "ĠÄłQue": 5536,
      "Ġrowing": 5537,
      "ĠÄłsurround": 5538,
      "ĠÄłbox": 5539,
      "ĠÄłrelig": 5540,
      "ĠÄłdecre": 5541,
      "ĠÄłexpress": 5542,
      "ĠÄłcorrel": 5543,
      "ĠÄłcorresp": 5544,
      "ĠÄłyou": 5545,
      "ĠÄłyoung": 5546,
      "Ġvenue": 5547,
      "Ġ-+": 5548,
      "Ġcious": 5549,
      "Ġcience": 5550,
      "ĠÄłtrave": 5551,
      "ĠÄłtrack": 5552,
      "ĠÄłconfig": 5553,
      "ĠÄłconflic": 5554,
      "ĠÄłconfront": 5555,
      "ĠQU": 5556,
      "ĠÄłentreprene": 5557,
      "Ġaired": 5558,
      "Ġported": 5559,
      "Ġumbnail": 5560,
      "Ġysical": 5561,
      "Ġoyal": 5562,
      "ĠÄłsynt": 5563,
      "ĠÄłdistur": 5564,
      "ĠÄłdistribut": 5565,
      "ĠÄłdistingu": 5566,
      "ĠÄłremem": 5567,
      "ĠÄłPlan": 5568,
      "ĠÄłBrit": 5569,
      "Ġ=-=": 5570,
      "ĠÄłguard": 5571,
      "ĠÄłguarant": 5572,
      "ĠÄłworld": 5573,
      "ĠÄłUnder": 5574,
      "Ġucky": 5575,
      "Ġcoin": 5576,
      "Ġaneous": 5577,
      "ĠChar": 5578,
      "ĠÄłdepend": 5579,
      "Ġifier": 5580,
      "Ġ??": 5581,
      "Ġaterial": 5582,
      "Ġplete": 5583,
      "ĠÄłagre": 5584,
      "ĠÄłinvent": 5585,
      "Ġushed": 5586,
      "Ġected": 5587,
      "Ġronic": 5588,
      "ĠÄłrail": 5589,
      "ĠÄłantib": 5590,
      "ĠÄłanticip": 5591,
      "ĠÄłundert": 5592,
      "ĠÄłunderstand": 5593,
      "Ġernel": 5594,
      "Ġernand": 5595,
      "ĠÄłfear": 5596,
      "ĠÄłsound": 5597,
      "ĠÄłsoft": 5598,
      "ĠÄłpresum": 5599,
      "ĠÄłdoct": 5600,
      "ĠÄłmetab": 5601,
      "ĠÄłAmeric": 5602,
      "ĠÄłMcK": 5603,
      "ĠÄłinstruct": 5604,
      "ĠÄłstrateg": 5605,
      "Ġotted": 5606,
      "ĠÄładvers": 5607,
      "ĠÄłupd": 5608,
      "ĠÄłupgr": 5609,
      "ĠÄłrevers": 5610,
      "Ġ\\\\\\": 5611,
      "Ġafe": 5612,
      "Ġooth": 5613,
      "Ġynam": 5614,
      "ĠIST": 5615,
      "ĠÄłexplos": 5616,
      "ĠÄłveget": 5617,
      "Ġargo": 5618,
      "ĠÄłminim": 5619,
      "Ġormal": 5620,
      "ĠICE": 5621,
      "Ġduc": 5622,
      "Ġiquid": 5623,
      "Ġeger": 5624,
      "Ġsole": 5625,
      "Ġsoft": 5626,
      "ĠÄłfrust": 5627,
      "ĠASS": 5628,
      "Ġ+++": 5629,
      "Ġrets": 5630,
      "Ġretch": 5631,
      "ĠÄłImpro": 5632,
      "ĠÄłende": 5633,
      "ĠÄłendors": 5634,
      "Ġounced": 5635,
      "ĠÄłpoly": 5636,
      "ĠÄłsupport": 5637,
      "ĠÄłsupplement": 5638,
      "ĠÄłembr": 5639,
      "ĠÄłSuper": 5640,
      "Ġtrans": 5641,
      "ĠÄłFran": 5642,
      "ĠÄłconclud": 5643,
      "Ġ},": 5644,
      "Ġoooo": 5645,
      "ĠÄłResp": 5646,
      "Ġiddle": 5647,
      "ĠOUR": 5648,
      "Ġumps": 5649,
      "ĠÄłOrgan": 5650,
      "ĠÄłlegal": 5651,
      "ĠÄłlegit": 5652,
      "ĠÄłaffect": 5653,
      "ĠÄłaffili": 5654,
      "Ġario": 5655,
      "ĠAME": 5656,
      "Ġisco": 5657,
      "ĠÄłunders": 5658,
      "Ġcheck": 5659,
      "ĠÄłprompt": 5660,
      "Ġirts": 5661,
      "Ġ;;;": 5662,
      "Ġussion": 5663,
      "Ġrawn": 5664,
      "ize": 5665,
      "Ġcycl": 5666,
      "ĠÄłoccur": 5667,
      "ĠÄłpersu": 5668,
      "Ġhett": 5669,
      "ĠECT": 5670,
      "ĠÄłconven": 5671,
      "ĠÄłconvers": 5672,
      "Ġsuccess": 5673,
      "ĠÄłprior": 5674,
      "Ġroller": 5675,
      "Ġitals": 5676,
      "ĠÄłfrequ": 5677,
      "ĠÄłPrem": 5678,
      "ĠÄłAssoci": 5679,
      "ĠÄłestim": 5680,
      "ĠÄłhuman": 5681,
      "ĠÄłIslam": 5682,
      "Ġophob": 5683,
      "Ġclude": 5684,
      "Ġcludes": 5685,
      "Ġcluding": 5686,
      "Ġributes": 5687,
      "ĠÄłillum": 5688,
      "ĠÄłbelong": 5689,
      "Ġborn": 5690,
      "Ġgoing": 5691,
      "Ġinterest": 5692,
      "ĠÄłcapital": 5693,
      "Ġpose": 5694,
      "Ġmissions": 5695,
      "ĠÄłtrem": 5696,
      "Ġetermin": 5697,
      "ĠÄłobsc": 5698,
      "Â£Â«": 5699,
      "Ġ</": 5700,
      "Ġajor": 5701,
      "ĠÄłCanad": 5702,
      "ĠÄłfunction": 5703,
      "ĠÄłfacilit": 5704,
      "ĠTrans": 5705,
      "Ġporary": 5706,
      "ĠÄłdownload": 5707,
      "ĠÄłmerc": 5708,
      "ĠÄłBrew": 5709,
      "ĠÄłGovern": 5710,
      "ĠÄłprogress": 5711,
      "ĠÄłengine": 5712,
      "ÃĥÄ¥ÃĥÄ¤ÃĥÄ¥ÃĥÄ¤ÃĥÄ¥ÃĥÄ¤ÃĥÄ¥ÃĥÄ¤ÃĥÄ¥ÃĥÄ¤ÃĥÄ¥ÃĥÄ¤ÃĥÄ¥ÃĥÄ¤ÃĥÄ¥ÃĥÄ¤": 5713,
      "ÃĥÄ¥ÃĥÄ¤ÃĥÄ¥ÃĥÄ¤ÃĥÄ¥ÃĥÄ¤ÃĥÄ¥ÃĥÄ¤ÃĥÄ¥ÃĥÄ¤ÃĥÄ¥ÃĥÄ¤ÃĥÄ¥ÃĥÄ¤": 5714,
      "ÃĤÅĤÃĤÅĤÃĤÅĤ": 5715,
      "Ã¢Ä¢Ä¶Ã¢Ä¢Ä¶Ã¢Ä¢Ä¶": 5716,
      "Ġaunch": 5717,
      "ĠÄłmillenn": 5718,
      "ĠÄłmagn": 5719,
      "ĠÄłAtl": 5720,
      "ĠÄłBuff": 5721,
      "ĠÄłhelp": 5722,
      "ĠOME": 5723,
      "ĠÄłvalid": 5724,
      "ĠÄłdescrib": 5725,
      "ĠÄłauthent": 5726,
      "ĠÄłdomin": 5727,
      "ĠÄłhyd": 5728,
      "ĠÄłvari": 5729,
      "ĠÄłdestro": 5730,
      "ĠÄłmarket": 5731,
      "ĠÄłinitial": 5732,
      "Ġwhile": 5733,
      "ĠÄłpenet": 5734,
      "Ġitutional": 5735,
      "ĠÄłtouch": 5736,
      "ĠÄłinnov": 5737,
      "ĠÄłRoll": 5738,
      "ĠÄłDemocr": 5739,
      "ĠÄłnarr": 5740,
      "ĠÄłnarrow": 5741,
      "ĠÄłprevent": 5742,
      "ĠÄłarchitect": 5743,
      "ĠÄłphotog": 5744,
      "ĠÄłdetermin": 5745,
      "ĠÄłcross": 5746,
      "Ġgency": 5747,
      "Ġgrade": 5748,
      "ĠÄłprosecut": 5749,
      "Ġibrary": 5750,
      "Ġ000000": 5751,
      "ĠÄłsymb": 5752,
      "ĠÄłescal": 5753,
      "ĠÄłcultiv": 5754,
      "Ġcially": 5755,
      "ĠÄłturb": 5756,
      "ĠÄłDiff": 5757,
      "ĠÄłCharl": 5758,
      "ĠÄłInvestig": 5759,
      "Ġclaimed": 5760,
      "Ġependent": 5761,
      "Ġvertisement": 5762,
      "Ġuilding": 5763,
      "Ġsembly": 5764,
      "Ġviously": 5765,
      "Ġython": 5766,
      "ĠÄłIncre": 5767,
      "ĠÄłprefer": 5768,
      "Ġortunately": 5769,
      "ĠÄłbehavi": 5770,
      "ĠÄłelev": 5771,
      "ĠItem": 5772,
      "ĠÄłdismiss": 5773,
      "ĠÄładministr": 5774,
      "Ã¢Ä¸ÄªÃ¢Ä¸Äª": 5775,
      "ĠÄłconstitu": 5776,
      "ÄłÃĤÅĤÄłÃĤÅĤ": 5777,
      "Ġ================================": 5778,
      "ĠÄłCOM": 5779,
      "ĠÄłfemin": 5780,
      "Ġrike": 5781,
      "ĠÄłquestion": 5782,
      "Ġonymous": 5783,
      "ĠÄłmaster": 5784,
      "Ġalysis": 5785,
      "ĠÄłstrugg": 5786,
      "ĠÄłstreng": 5787,
      "ĠÄłJohn": 5788,
      "ĠÄłintimid": 5789,
      "ĠÄłathlet": 5790,
      "Ġprising": 5791,
      "ĠÄłenthusi": 5792,
      "ĠÄłvolunte": 5793,
      "ĠÄłridic": 5794,
      "ĠÄłborrow": 5795,
      "ĠÄłrenew": 5796,
      "ĠÄłPalest": 5797,
      "ĠÄłfollow": 5798,
      "Ġpecially": 5799,
      "ĠÄłArab": 5800,
      "ĠÄłhabit": 5801,
      "ĠÄłchalleng": 5802,
      "ĠÄłaccommod": 5803,
      "ĠÄłindepend": 5804,
      "ĠÄłoverwhel": 5805,
      "ĠÄłcorrespond": 5806,
      "An": 5807,
      "CE": 5808,
      "OT": 5809,
      "RE": 5810,
      "TR": 5811,
      "TS": 5812,
      "ait": 5813,
      "aph": 5814,
      "aks": 5815,
      "aith": 5816,
      "auc": 5817,
      "bit": 5818,
      "bur": 5819,
      "ball": 5820,
      "back": 5821,
      "cre": 5822,
      "cial": 5823,
      "come": 5824,
      "cript": 5825,
      "dd": 5826,
      "ev": 5827,
      "ein": 5828,
      "een": 5829,
      "fe": 5830,
      "fic": 5831,
      "ful": 5832,
      "friend": 5833,
      "ges": 5834,
      "gram": 5835,
      "hing": 5836,
      "hol": 5837,
      "had": 5838,
      "host": 5839,
      "hrop": 5840,
      "iam": 5841,
      "iver": 5842,
      "iod": 5843,
      "ients": 5844,
      "lr": 5845,
      "lv": 5846,
      "lim": 5847,
      "mosp": 5848,
      "ners": 5849,
      "oom": 5850,
      "oft": 5851,
      "pe": 5852,
      "pan": 5853,
      "sc": 5854,
      "sel": 5855,
      "secut": 5856,
      "top": 5857,
      "ux": 5858,
      "uy": 5859,
      "ured": 5860,
      "urop": 5861,
      "we": 5862,
      "well": 5863,
      "Â¨": 5864,
      "Â±": 5865,
      "Â´": 5866,
      "Âµ": 5867,
      "Â·": 5868,
      "Ã©": 5869,
      "Äº": 5870,
      "Ġ========": 5871,
      "Ġ________": 5872,
      "Ġ####": 5873,
      "ĠÄĬ": 5874,
      "ĠÄłold": 5875,
      "ĠÄłram": 5876,
      "ĠÄłiter": 5877,
      "Ġii": 5878,
      "Ġiy": 5879,
      "Ġiro": 5880,
      "Ġiate": 5881,
      "Ġiens": 5882,
      "Ġiary": 5883,
      "Ġaa": 5884,
      "Ġaund": 5885,
      "Ġoj": 5886,
      "Ġoop": 5887,
      "Ġoons": 5888,
      "Ġoft": 5889,
      "Ġez": 5890,
      "Ġele": 5891,
      "Ġeem": 5892,
      "Ġeks": 5893,
      "Ġeffect": 5894,
      "Ġeared": 5895,
      "ona": 5896,
      "Ġught": 5897,
      "Ġuph": 5898,
      "Ġuled": 5899,
      "Ġuary": 5900,
      "Ġuations": 5901,
      "inth": 5902,
      "ster": 5903,
      "Ġinar": 5904,
      "Ġinit": 5905,
      "Ġinem": 5906,
      "Ġinition": 5907,
      "Ġinite": 5908,
      "ĠÄłcer": 5909,
      "ĠÄłcra": 5910,
      "ĠÄłcir": 5911,
      "ĠÄłcort": 5912,
      "ĠÄłcens": 5913,
      "ĠÄłcance": 5914,
      "ĠÄłcrow": 5915,
      "ĠÄłcraft": 5916,
      "ĠÄłcitiz": 5917,
      "Ġrum": 5918,
      "ley": 5919,
      "ĠÄłsr": 5920,
      "ĠÄłsel": 5921,
      "ĠÄłsold": 5922,
      "Ġati": 5923,
      "Ġatar": 5924,
      "Ġatus": 5925,
      "Ġaters": 5926,
      "Ġatures": 5927,
      "edi": 5928,
      "eder": 5929,
      "Ġses": 5930,
      "Ġsing": 5931,
      "Ġsur": 5932,
      "ald": 5933,
      "ally": 5934,
      "ĠÄłpin": 5935,
      "ĠÄłpor": 5936,
      "ĠÄłpus": 5937,
      "ĠÄłpir": 5938,
      "ĠÄłpist": 5939,
      "ĠÄłpill": 5940,
      "ĠÄłpull": 5941,
      "ĠÄłpict": 5942,
      "ĠÄłpse": 5943,
      "ĠÄłpump": 5944,
      "ĠÄłpupp": 5945,
      "ĠÄłpadd": 5946,
      "ĠÄłpuzz": 5947,
      "Ġcr": 5948,
      "Ġcu": 5949,
      "Ġcal": 5950,
      "Ġcor": 5951,
      "Ġcers": 5952,
      "Ġcore": 5953,
      "Ġcap": 5954,
      "Ġcare": 5955,
      "Ġcase": 5956,
      "Ġcular": 5957,
      "Ġcific": 5958,
      "arp": 5959,
      "arrass": 5960,
      "Ġpa": 5961,
      "Ġpes": 5962,
      "Ġpen": 5963,
      "Ġpent": 5964,
      "Ġpri": 5965,
      "Ġpher": 5966,
      "Ġpie": 5967,
      "Ġpled": 5968,
      "Ġpack": 5969,
      "Ġpass": 5970,
      "Ġpare": 5971,
      "Ġpost": 5972,
      "Ġparent": 5973,
      "ana": 5974,
      "ani": 5975,
      "anes": 5976,
      "ances": 5977,
      "ings": 5978,
      "org": 5979,
      "ĠÄłdun": 5980,
      "ĠÄłdow": 5981,
      "ĠÄłdial": 5982,
      "ĠÄłdys": 5983,
      "ĠÄłdream": 5984,
      "ĠÄłdraft": 5985,
      "ĠÄłdrag": 5986,
      "ĠÄłdynam": 5987,
      "Ġls": 5988,
      "Ġlv": 5989,
      "Ġlif": 5990,
      "Ġlaw": 5991,
      "Ġlisher": 5992,
      "ĠÄłSE": 5993,
      "ĠÄłSS": 5994,
      "ĠÄłSU": 5995,
      "ĠÄłSon": 5996,
      "ĠÄłSan": 5997,
      "ĠÄłSing": 5998,
      "ĠÄłSus": 5999,
      "ĠÄłServ": 6000,
      "ĠÄłSER": 6001,
      "ĠÄłSaf": 6002,
      "ata": 6003,
      "ats": 6004,
      "Ġtail": 6005,
      "ĠÄłCut": 6006,
      "ĠÄłCop": 6007,
      "ĠÄłCard": 6008,
      "ĠÄłCall": 6009,
      "ĠÄłCub": 6010,
      "ĠÄłCast": 6011,
      "ĠÄłCert": 6012,
      "ĠÄłCamp": 6013,
      "ĠÄłCirc": 6014,
      "ĠÄłCustom": 6015,
      "ĠÄłCitiz": 6016,
      "Ġmd": 6017,
      "Ġmn": 6018,
      "Ġmic": 6019,
      "Ġmers": 6020,
      "Ġmas": 6021,
      "Ġmate": 6022,
      "Ġmine": 6023,
      "Ġmult": 6024,
      "Ġmont": 6025,
      "Ġmax": 6026,
      "Ġmates": 6027,
      "Ġmatic": 6028,
      "Ġitut": 6029,
      "Ġiture": 6030,
      "Ġitely": 6031,
      "Ġitative": 6032,
      "Ġinging": 6033,
      "Ġington": 6034,
      "Ġeries": 6035,
      "Ġeria": 6036,
      "ĠÄłtut": 6037,
      "ĠÄłtop": 6038,
      "ĠÄłtall": 6039,
      "ĠÄłtub": 6040,
      "ĠÄłtend": 6041,
      "ĠÄłtable": 6042,
      "ĠÄłtick": 6043,
      "ĠÄłtrib": 6044,
      "ĠÄłtime": 6045,
      "ĠÄłtrend": 6046,
      "ĠÄłtake": 6047,
      "Ġicon": 6048,
      "Ġican": 6049,
      "Ġicable": 6050,
      "Ġicide": 6051,
      "Ġicient": 6052,
      "Ġicism": 6053,
      "ĠÄłaim": 6054,
      "ĠÄłaver": 6055,
      "Ġaron": 6056,
      "Ġarth": 6057,
      "ĠÄłbic": 6058,
      "ĠÄłbow": 6059,
      "ĠÄłband": 6060,
      "ĠÄłbab": 6061,
      "ĠÄłbund": 6062,
      "ĠÄłbru": 6063,
      "ĠÄłbath": 6064,
      "ĠÄłbright": 6065,
      "ĠÄłbirth": 6066,
      "ĠÄłmas": 6067,
      "ĠÄłmust": 6068,
      "ĠÄłmac": 6069,
      "ĠÄłmix": 6070,
      "ĠÄłmemb": 6071,
      "ĠÄłmach": 6072,
      "ĠÄłmatch": 6073,
      "rol": 6074,
      "rous": 6075,
      "Ġbn": 6076,
      "Ġbat": 6077,
      "Ġben": 6078,
      "Ġbet": 6079,
      "Ġbid": 6080,
      "Ġbum": 6081,
      "Ġbles": 6082,
      "Ġbled": 6083,
      "Ġbian": 6084,
      "Ġbably": 6085,
      "Ġhh": 6086,
      "Ġhi": 6087,
      "Ġhill": 6088,
      "Ġhire": 6089,
      "Ġheld": 6090,
      "Ġorce": 6091,
      "Ġoria": 6092,
      "Ġorne": 6093,
      "Ġorious": 6094,
      "Ġorney": 6095,
      "ĠÄłfro": 6096,
      "ĠÄłfet": 6097,
      "ĠÄłfut": 6098,
      "ĠÄłfest": 6099,
      "ĠÄłfast": 6100,
      "ĠÄłfru": 6101,
      "ĠÄłfif": 6102,
      "ĠÄłfind": 6103,
      "ĠÄłfair": 6104,
      "ĠÄłfuck": 6105,
      "ĠÄłfisher": 6106,
      "ĠÄłfaith": 6107,
      "Ġenz": 6108,
      "Ġeness": 6109,
      "Ġename": 6110,
      "ĠÄłreass": 6111,
      "entle": 6112,
      "Ġeding": 6113,
      "ĠÄłPH": 6114,
      "ĠÄłPO": 6115,
      "ĠÄłPok": 6116,
      "ĠÄłPower": 6117,
      "ĠÄłPear": 6118,
      "lla": 6119,
      "Ġreated": 6120,
      "Ġreport": 6121,
      "ĠÄłAB": 6122,
      "ĠÄłAL": 6123,
      "ĠÄłAx": 6124,
      "ĠÄłAuthor": 6125,
      "ĠÄłML": 6126,
      "ĠÄłMa": 6127,
      "ĠÄłMur": 6128,
      "ĠÄłMid": 6129,
      "ĠÄłMand": 6130,
      "ĠÄłMos": 6131,
      "ĠÄłMult": 6132,
      "ĠÄłMass": 6133,
      "ĠÄłMong": 6134,
      "ĠÄłMex": 6135,
      "ĠÄłMax": 6136,
      "ĠÄłMatt": 6137,
      "ĠÄłMach": 6138,
      "ĠÄłMoh": 6139,
      "ĠÄłMyster": 6140,
      "icit": 6141,
      "Ġva": 6142,
      "Ġvi": 6143,
      "Ġvet": 6144,
      "Ġvol": 6145,
      "Ġvas": 6146,
      "Ġvia": 6147,
      "itch": 6148,
      "ĠÄłBa": 6149,
      "ĠÄłBom": 6150,
      "ĠÄłBall": 6151,
      "ĠÄłBry": 6152,
      "ĠÄłBoy": 6153,
      "ĠÄłBurn": 6154,
      "ĠÄłBah": 6155,
      "ĠÄłBatt": 6156,
      "omen": 6157,
      "Ġnc": 6158,
      "Ġni": 6159,
      "Ġnat": 6160,
      "Ġnie": 6161,
      "ĠÃ°Åģ": 6162,
      "Ġgi": 6163,
      "Ġgre": 6164,
      "Ġgage": 6165,
      "Ġgence": 6166,
      "Ġyer": 6167,
      "Ġyright": 6168,
      "Ġystem": 6169,
      "ĠÄłet": 6170,
      "ĠÄłeight": 6171,
      "ĠÄłearn": 6172,
      "ĠAB": 6173,
      "ĠAt": 6174,
      "ĠAmer": 6175,
      "Ġfo": 6176,
      "Ġfin": 6177,
      "Ġfar": 6178,
      "Ġfil": 6179,
      "Ġfly": 6180,
      "Ġfund": 6181,
      "Ġfight": 6182,
      "Ġfire": 6183,
      "Ġfram": 6184,
      "Ġfoot": 6185,
      "ĠÄłinhab": 6186,
      "ĠÄłRh": 6187,
      "ĠÄłRu": 6188,
      "ĠÄłRy": 6189,
      "ĠÄłRos": 6190,
      "ĠÄłRoc": 6191,
      "ĠÄłRou": 6192,
      "ĠÄłRank": 6193,
      "ĠÄłRuss": 6194,
      "Ġoning": 6195,
      "Ġonic": 6196,
      "Ġonder": 6197,
      "Ġonia": 6198,
      "Ġisf": 6199,
      "Ġisy": 6200,
      "Ġisation": 6201,
      "Ġisive": 6202,
      "Ġisons": 6203,
      "Ġisition": 6204,
      "Ġisite": 6205,
      "Ġala": 6206,
      "Ġalg": 6207,
      "Ġalo": 6208,
      "Ġalian": 6209,
      "ĠÄłTo": 6210,
      "ĠÄłTal": 6211,
      "ĠÄłTun": 6212,
      "ĠÄłTown": 6213,
      "ĠÄłTrad": 6214,
      "ĠÄłTob": 6215,
      "ĠÄłTrib": 6216,
      "ĠÄłham": 6217,
      "ĠÄłhous": 6218,
      "ĠÄłhere": 6219,
      "ĠÄłhier": 6220,
      "ĠÄłhosp": 6221,
      "ĠÄłDra": 6222,
      "ĠÄłDay": 6223,
      "ĠÄłDou": 6224,
      "ĠÄłDynam": 6225,
      "ĠÄłDomin": 6226,
      "Ġlee": 6227,
      "isc": 6228,
      "urt": 6229,
      "urrent": 6230,
      "ĠSC": 6231,
      "ĠSL": 6232,
      "ĠSm": 6233,
      "ĠSen": 6234,
      "ĠSub": 6235,
      "ĠSupp": 6236,
      "ĠEP": 6237,
      "ĠEm": 6238,
      "ĠEar": 6239,
      "ĠEvery": 6240,
      "etic": 6241,
      "ĠÄłgly": 6242,
      "ĠÄłgam": 6243,
      "ĠÄłgas": 6244,
      "ĠÄłgest": 6245,
      "ĠÄłgather": 6246,
      "rael": 6247,
      "ĠÄłHE": 6248,
      "ĠÄłHT": 6249,
      "ĠÄłHis": 6250,
      "ĠÄłHay": 6251,
      "ĠÄłHall": 6252,
      "ĠÄłHung": 6253,
      "ĠÄłHoll": 6254,
      "ĠÄłHann": 6255,
      "ĠIB": 6256,
      "ĠÄłFI": 6257,
      "ĠÄłFu": 6258,
      "ĠÄłFort": 6259,
      "ĠÄłFund": 6260,
      "ĠÄłFac": 6261,
      "ĠÄłFif": 6262,
      "ĠÄłFire": 6263,
      "ĠÄłFriend": 6264,
      "ĠÄłLet": 6265,
      "ĠÄłLow": 6266,
      "ĠÄłLib": 6267,
      "ĠÄłLind": 6268,
      "ĠÄłLuc": 6269,
      "ĠÄłLyn": 6270,
      "ĠÄłLiter": 6271,
      "ĠÄłlin": 6272,
      "ĠÄłlit": 6273,
      "ĠÄłlast": 6274,
      "ĠÄłlink": 6275,
      "ĠÄłlike": 6276,
      "Ġwater": 6277,
      "Ġworth": 6278,
      "Ġwalk": 6279,
      "Ġworld": 6280,
      "ellect": 6281,
      "Ġdf": 6282,
      "Ġdig": 6283,
      "Ġdate": 6284,
      "Ġdiv": 6285,
      "Ġdirect": 6286,
      "Ġdragon": 6287,
      "ĠÄłwal": 6288,
      "ĠÄłwom": 6289,
      "ĠÄłwip": 6290,
      "ĠÄłwant": 6291,
      "ĠÄłwast": 6292,
      "ĠÄłwood": 6293,
      "ĠÄłworth": 6294,
      "ĠÄłwitness": 6295,
      "ĠÄłGM": 6296,
      "ĠÄłGod": 6297,
      "ĠÄłGall": 6298,
      "ĠÄłGib": 6299,
      "ĠÄłGree": 6300,
      "ĠCD": 6301,
      "ĠCP": 6302,
      "ĠCR": 6303,
      "ĠCo": 6304,
      "ĠCr": 6305,
      "ĠCor": 6306,
      "olf": 6307,
      "olis": 6308,
      "olid": 6309,
      "olars": 6310,
      "ĠÄłED": 6311,
      "ĠÄłEz": 6312,
      "ĠÄłEss": 6313,
      "ĠÄłEnter": 6314,
      "ĠÄłEuro": 6315,
      "Ġida": 6316,
      "Ġidency": 6317,
      "imes": 6318,
      "ĠOH": 6319,
      "ĠOff": 6320,
      "ĠOver": 6321,
      "ĠOrig": 6322,
      "ĠOffic": 6323,
      "Ġami": 6324,
      "Ġamous": 6325,
      "Ġamily": 6326,
      "ĠÄłcong": 6327,
      "ĠPC": 6328,
      "ĠPM": 6329,
      "ĠPost": 6330,
      "Ġesy": 6331,
      "Ġaga": 6332,
      "Ġagg": 6333,
      "Ġagh": 6334,
      "Ġago": 6335,
      "Ġagen": 6336,
      "Ġagic": 6337,
      "ĠÄłof": 6338,
      "ĠÄłow": 6339,
      "Ġko": 6340,
      "Ġkel": 6341,
      "Ġktop": 6342,
      "ĠÄłsto": 6343,
      "ĠÄłstun": 6344,
      "ĠÄłstress": 6345,
      "ĠÄłstock": 6346,
      "ĠÄłstory": 6347,
      "Ġoli": 6348,
      "Ġolis": 6349,
      "Ġolve": 6350,
      "Ġroc": 6351,
      "Ġrox": 6352,
      "Ġrole": 6353,
      "Ġrock": 6354,
      "Ġroph": 6355,
      "Ġrote": 6356,
      "ĠÄłnost": 6357,
      "ĠÄłnerv": 6358,
      "ĠÄłnurs": 6359,
      "Ġlyn": 6360,
      "ĠTw": 6361,
      "ĠTem": 6362,
      "ĠTyp": 6363,
      "ĠÄłID": 6364,
      "ĠÄłIP": 6365,
      "ĠÄłIss": 6366,
      "Ġabe": 6367,
      "Ġabul": 6368,
      "ĠÄłWin": 6369,
      "ĠÄłWest": 6370,
      "ĠÄłWrit": 6371,
      "ĠÄłWork": 6372,
      "ĠÄłWAR": 6373,
      "ĠÄłNi": 6374,
      "ĠÄłNig": 6375,
      "ĠÄłNorm": 6376,
      "ĠÄłNob": 6377,
      "ĠÄłNich": 6378,
      "ĠÄłNAS": 6379,
      "Ġether": 6380,
      "Ġetitive": 6381,
      "Ġrah": 6382,
      "Ġras": 6383,
      "ried": 6384,
      "ries": 6385,
      "rific": 6386,
      "Ġila": 6387,
      "Ġilton": 6388,
      "Ġoti": 6389,
      "Ġoted": 6390,
      "ĠRC": 6391,
      "ĠRS": 6392,
      "ĠRun": 6393,
      "ĠRob": 6394,
      "ĠMP": 6395,
      "ĠMe": 6396,
      "ĠMon": 6397,
      "ĠMin": 6398,
      "ĠMus": 6399,
      "Ġria": 6400,
      "Ġrix": 6401,
      "Ġrior": 6402,
      "Ġrient": 6403,
      "Ġrive": 6404,
      "Ġrief": 6405,
      "Ġurer": 6406,
      "Ġurred": 6407,
      "Ġurren": 6408,
      "Ġurther": 6409,
      "emat": 6410,
      "Ġstal": 6411,
      "Ġstan": 6412,
      "Ġstic": 6413,
      "Ġstra": 6414,
      "Ġstep": 6415,
      "Ġstract": 6416,
      "Ġador": 6417,
      "pport": 6418,
      "ĠDP": 6419,
      "ĠDR": 6420,
      "ĠDo": 6421,
      "ĠDon": 6422,
      "ĠDel": 6423,
      "ĠDem": 6424,
      "ĠDown": 6425,
      "ĠDef": 6426,
      "ĠDER": 6427,
      "ĠÄłunve": 6428,
      "ĠÄłunequ": 6429,
      "ĠBO": 6430,
      "ĠBy": 6431,
      "ĠBre": 6432,
      "ĠBen": 6433,
      "ĠBet": 6434,
      "ĠBook": 6435,
      "Ġusive": 6436,
      "ĠÄłven": 6437,
      "ĠÄłvoc": 6438,
      "ĠÄłvag": 6439,
      "ĠÄłdeg": 6440,
      "ĠÄłdece": 6441,
      "Ġione": 6442,
      "Ġersion": 6443,
      "advant": 6444,
      "Ġimb": 6445,
      "Ġims": 6446,
      "Ġimens": 6447,
      "Ġ31": 6448,
      "ĠFA": 6449,
      "ĠFI": 6450,
      "ĠFe": 6451,
      "ĠFil": 6452,
      "ĠFram": 6453,
      "ĠÄłKh": 6454,
      "ĠÄłKing": 6455,
      "ĠÄłKen": 6456,
      "ĠÄłKim": 6457,
      "ĠÄłKore": 6458,
      "ĠÄłKenn": 6459,
      "ĠÄłKurd": 6460,
      "Ġchen": 6461,
      "Ġchild": 6462,
      "Ġisting": 6463,
      "Ġistant": 6464,
      "Ġ61": 6465,
      "Ġ63": 6466,
      "ĠLoad": 6467,
      "ĠLeg": 6468,
      "ĠLear": 6469,
      "Ġoma": 6470,
      "Ġomi": 6471,
      "Ġomed": 6472,
      "ided": 6473,
      "Ġosa": 6474,
      "ĠÄłexch": 6475,
      "ĠÄłexcept": 6476,
      "ĠÄłexternal": 6477,
      "Ġulk": 6478,
      "Ġulse": 6479,
      "Ġulative": 6480,
      "Ġulner": 6481,
      "Ġulator": 6482,
      "Ġ43": 6483,
      "ĠÄłprost": 6484,
      "ĠÄłproper": 6485,
      "ĠÄłproced": 6486,
      "ĠÄłproble": 6487,
      "Ġeling": 6488,
      "Ġellect": 6489,
      "Ġelcome": 6490,
      "Ġ71": 6491,
      "Ġ72": 6492,
      "Ġ73": 6493,
      "Ġ74": 6494,
      "Ġunity": 6495,
      "ĠÄłOP": 6496,
      "ĠÄłOk": 6497,
      "ĠÄłOw": 6498,
      "ĠÄłOpt": 6499,
      "ĠÄłOtt": 6500,
      "Ġaka": 6501,
      "Ġiful": 6502,
      "Ġifest": 6503,
      "Ġuto": 6504,
      "Ġuters": 6505,
      "Ġutral": 6506,
      "ĠÄłVan": 6507,
      "ĠÄłVent": 6508,
      "ĠÄłVeg": 6509,
      "ĠÄłVik": 6510,
      "ĠÄłVeter": 6511,
      "andon": 6512,
      "Ġ02": 6513,
      "Ġ09": 6514,
      "ĠÄłcomed": 6515,
      "ĠÄłcomfort": 6516,
      "Ġige": 6517,
      "Ġigm": 6518,
      "Ġiger": 6519,
      "Ġigious": 6520,
      "Ġigger": 6521,
      "Ġacles": 6522,
      "Ġatell": 6523,
      "ĠÄłJu": 6524,
      "ĠÄłJon": 6525,
      "ĠÄłJes": 6526,
      "ĠÄłJew": 6527,
      "asp": 6528,
      "ĠUP": 6529,
      "ĠUlt": 6530,
      "ĠÄłric": 6531,
      "ĠÄłrank": 6532,
      "ĠÄłsuck": 6533,
      "ĠÄłsucc": 6534,
      "ĠÄłsupre": 6535,
      "Ġirgin": 6536,
      "ĠNT": 6537,
      "ĠName": 6538,
      "ĠHS": 6539,
      "ĠHT": 6540,
      "Ġemb": 6541,
      "Ġemed": 6542,
      "Ġeman": 6543,
      "Ġemet": 6544,
      "Ġemption": 6545,
      "Ġemale": 6546,
      "Ġowl": 6547,
      "Ġownt": 6548,
      "Ġowing": 6549,
      "ĠÄłdisadvant": 6550,
      "ĠGE": 6551,
      "ĠGe": 6552,
      "ĠGold": 6553,
      "ĠGener": 6554,
      "heast": 6555,
      "Ġzan": 6556,
      "Ġzing": 6557,
      "Ġizon": 6558,
      "Ġizable": 6559,
      "ĠÄłspok": 6560,
      "ĠÄłspark": 6561,
      "ĠÄłspaw": 6562,
      "ĠÄłspread": 6563,
      "£Ä¤": 6564,
      "ecd": 6565,
      "ĠWH": 6566,
      "ĠWhe": 6567,
      "ĠWAR": 6568,
      "Ġopy": 6569,
      "Ġopher": 6570,
      "ĠÄłcoc": 6571,
      "ĠÄłcock": 6572,
      "Ġapon": 6573,
      "Ġapor": 6574,
      "Ġapons": 6575,
      "Ġapse": 6576,
      "Ġallow": 6577,
      "Ġmented": 6578,
      "Ġmentation": 6579,
      "ĠÃ£Ä¢Ä": 6580,
      "ĠÄłshr": 6581,
      "ĠÄłshif": 6582,
      "ĠÄłshield": 6583,
      "pload": 6584,
      "Ġoca": 6585,
      "Ġocate": 6586,
      "Ġandra": 6587,
      "ĠÄłchall": 6588,
      "ĠÄłchang": 6589,
      "ĠÄłchrom": 6590,
      "ĠÄłUt": 6591,
      "ĠÄłenvironment": 6592,
      "Ġoday": 6593,
      "Ġodium": 6594,
      "Ġodcast": 6595,
      "Ġtery": 6596,
      "Ġterday": 6597,
      "Ġterror": 6598,
      "ĠÄłStand": 6599,
      "ĠÄłStart": 6600,
      "osh": 6601,
      "Ġiac": 6602,
      "Ġiah": 6603,
      "Ġoup": 6604,
      "Ġoust": 6605,
      "Ġths": 6606,
      "Ġthal": 6607,
      "Ġthink": 6608,
      "ĠÄłado": 6609,
      "Ġibilities": 6610,
      "Ġoga": 6611,
      "Ġogan": 6612,
      "Ġensed": 6613,
      "Ġensus": 6614,
      "Ġsea": 6615,
      "Ġseason": 6616,
      "Ġasty": 6617,
      "Ġastern": 6618,
      "ĠVI": 6619,
      "ĠVal": 6620,
      "Ġipedia": 6621,
      "Ġiana": 6622,
      "Ġieg": 6623,
      "Ġarded": 6624,
      "Ġjoy": 6625,
      "ĠÄłChall": 6626,
      "ĠÄłRequ": 6627,
      "ĠÄłanch": 6628,
      "ĠÄłanarch": 6629,
      "ĠÄłanecd": 6630,
      "Ġavan": 6631,
      "Ġavasc": 6632,
      "Ġhell": 6633,
      "Ġheim": 6634,
      "ĠÄłclar": 6635,
      "ĠÄłclot": 6636,
      "Ġplom": 6637,
      "ĠÄłsell": 6638,
      "ĠÄłseason": 6639,
      "ĠÄłsevent": 6640,
      "ĠÄłInn": 6641,
      "Ġangle": 6642,
      "Ġangers": 6643,
      "ĠÄłscar": 6644,
      "ĠÄłscram": 6645,
      "ĠÄłscream": 6646,
      "Ġcean": 6647,
      "ĠÄłje": 6648,
      "ĠÄłjew": 6649,
      "ĠÄłresur": 6650,
      "ĠÄłkiss": 6651,
      "Ġclos": 6652,
      "ĠÄłtrick": 6653,
      "ĠÄłles": 6654,
      "ĠÄłlet": 6655,
      "ĠÄłlect": 6656,
      "ĠÄłleft": 6657,
      "ĠÄłlevel": 6658,
      "ĠÄłlearn": 6659,
      "ĠÄłcontam": 6660,
      "ĠÄłcontain": 6661,
      "ĠÄłcontact": 6662,
      "Ġctic": 6663,
      "ief": 6664,
      "ĠÄłcompr": 6665,
      "ĠÄłcompan": 6666,
      "ĠÄłcompens": 6667,
      "Ġques": 6668,
      "Ġqual": 6669,
      "Ġquart": 6670,
      "ĠÄłpregn": 6671,
      "ibly": 6672,
      "ĠKE": 6673,
      "Ġessor": 6674,
      "Ġessage": 6675,
      "Ġicking": 6676,
      "ĠÄłShin": 6677,
      "ĠÄłShel": 6678,
      "ĠÄłConc": 6679,
      "ĠÄłCond": 6680,
      "ĠÄłthan": 6681,
      "ĠÄłthank": 6682,
      "ĠÄłthink": 6683,
      "Ġouses": 6684,
      "Ġousand": 6685,
      "ĠÄłroy": 6686,
      "ĠÄłroll": 6687,
      "Ġighters": 6688,
      "Ġobby": 6689,
      "Ġactor": 6690,
      "Ġactiv": 6691,
      "Ġactory": 6692,
      "Ġortal": 6693,
      "Ġorthern": 6694,
      "ages": 6695,
      "agger": 6696,
      "Ġacker": 6697,
      "ĠÄłplant": 6698,
      "ĠÄłnear": 6699,
      "ĠÄłneur": 6700,
      "ĠÄłflour": 6701,
      "ĠÄłflood": 6702,
      "Ġoute": 6703,
      "Ġouting": 6704,
      "Ġouthern": 6705,
      "Ġoutheast": 6706,
      "Ġartz": 6707,
      "ĠÃ¢Ä·": 6708,
      "ĠÃ¢Äº": 6709,
      "ĠÄłarrest": 6710,
      "ĠÄłarbit": 6711,
      "Ġoker": 6712,
      "Ġokes": 6713,
      "Ġancies": 6714,
      "Ġ\">": 6715,
      "ĠÄłÃ¢Ä¶": 6716,
      "ĠÄłÃ°Åģ": 6717,
      "ĠÄłÃ£Ä¤": 6718,
      "Ġaret": 6719,
      "Ġansas": 6720,
      "ĠÄłblind": 6721,
      "ĠÄłblood": 6722,
      "ĠÄłhealth": 6723,
      "Ġphy": 6724,
      "Ġphas": 6725,
      "Ġphones": 6726,
      "Ġustain": 6727,
      "Ġpty": 6728,
      "Ġptions": 6729,
      "Ġpered": 6730,
      "ĠÄłrecy": 6731,
      "ĠÄłrecre": 6732,
      "ĠÄłsubt": 6733,
      "ĠÄłsubject": 6734,
      "Ġocker": 6735,
      "Ġppy": 6736,
      "Ġpport": 6737,
      "Ġredd": 6738,
      "Ġrespect": 6739,
      "ĠÄłintrig": 6740,
      "ĠÄłintellect": 6741,
      "Ġovie": 6742,
      "ĠÄłbeg": 6743,
      "ĠÄłbell": 6744,
      "ĠÄłbeaut": 6745,
      "Ġlla": 6746,
      "Ġhern": 6747,
      "Ġhered": 6748,
      "Ġherent": 6749,
      "ĠÄłYou": 6750,
      "ĠÄłdiver": 6751,
      "Ġashion": 6752,
      "aven": 6753,
      "ĠÄłathe": 6754,
      "ĠÄłquick": 6755,
      "ĠÄłquarter": 6756,
      "Ġaway": 6757,
      "Ġaware": 6758,
      "Ġeller": 6759,
      "Ġellar": 6760,
      "ĠÄłProgram": 6761,
      "ĠÄłincon": 6762,
      "ĠÄłincent": 6763,
      "ĠÄłinterven": 6764,
      "ĠÄłinterpret": 6765,
      "Ġideos": 6766,
      "ĠÃ£Ä¥Äª": 6767,
      "ĠÄłpercent": 6768,
      "ĠÄłperfect": 6769,
      "ĠÄłperiod": 6770,
      "ĠÄłDead": 6771,
      "ĠÄłDevelop": 6772,
      "Ġberry": 6773,
      "ĠÃĥÅĥ": 6774,
      "Ġ.'": 6775,
      "ĠÄłabol": 6776,
      "ĠÄłabund": 6777,
      "ĠÄłabandon": 6778,
      "ĠÄłAny": 6779,
      "ĠÄłAnim": 6780,
      "Ġazi": 6781,
      "Ġazz": 6782,
      "Ġazon": 6783,
      "Ġazine": 6784,
      "ĠÄłslic": 6785,
      "ĠÄłpoison": 6786,
      "ĠÄłimpact": 6787,
      "ĠÄłassemb": 6788,
      "ĠÄłassault": 6789,
      "ĠÄłAltern": 6790,
      "ĠÄłArg": 6791,
      "Ġittee": 6792,
      "ĠÄłteen": 6793,
      "ĠÄłteach": 6794,
      "ified": 6795,
      "ĠÄłconsolid": 6796,
      "ĠÄłaccur": 6797,
      "Ġamps": 6798,
      "Ġamped": 6799,
      "Ġiley": 6800,
      "ĠÄłinsurg": 6801,
      "Ġpeat": 6802,
      "ĠÄłinfect": 6803,
      "Ġirement": 6804,
      "Ġirection": 6805,
      "ĠÄłobst": 6806,
      "ĠÄłtransf": 6807,
      "ĠÄłtransport": 6808,
      "Ġicts": 6809,
      "ĠÄłwell": 6810,
      "ĠÄłweap": 6811,
      "ĠÄłwealth": 6812,
      "ĠÄłoverd": 6813,
      "ĠÄłoverl": 6814,
      "ĠÄłZe": 6815,
      "ĠÄłZh": 6816,
      "Ġinton": 6817,
      "ĠÄłcris": 6818,
      "ĠÄłThom": 6819,
      "Ġweight": 6820,
      "ĠÄłcommer": 6821,
      "ĠÄłcommission": 6822,
      "ĠÄłdisco": 6823,
      "ĠÄłdiscour": 6824,
      "ĠÄłdiscont": 6825,
      "Ġathy": 6826,
      "Ġrency": 6827,
      "ĠÄłattempt": 6828,
      "Ġ''": 6829,
      "ĠÄłreform": 6830,
      "Ġificant": 6831,
      "Ġiolet": 6832,
      "Ġexp": 6833,
      "Ġpson": 6834,
      "ĠÄłouts": 6835,
      "ĠÄłdefe": 6836,
      "ĠÄłdefic": 6837,
      "ĠÄłdefend": 6838,
      "ĠÄłScar": 6839,
      "ĠÄłScot": 6840,
      "ĠÄłAdminist": 6841,
      "ĠATA": 6842,
      "ĠATE": 6843,
      "ĠATH": 6844,
      "ĠATION": 6845,
      "Ġrics": 6846,
      "ĠÄłdesper": 6847,
      "ĠÄłtool": 6848,
      "ĠARD": 6849,
      "ĠARE": 6850,
      "ĠARK": 6851,
      "Ġletter": 6852,
      "Ġrowd": 6853,
      "Ġrows": 6854,
      "ĠÄłsurf": 6855,
      "ĠÄłsurve": 6856,
      "Ġprise": 6857,
      "Ġannon": 6858,
      "Ġanners": 6859,
      "ĠÄłbound": 6860,
      "ĠÄłrelax": 6861,
      "ĠÄłreluct": 6862,
      "ĠÄłdecor": 6863,
      "ĠÄłcorpor": 6864,
      "ĠÄłbrut": 6865,
      "ĠÄłwhist": 6866,
      "ĠÄłyour": 6867,
      "ĠÄłyield": 6868,
      "ĠÄłpars": 6869,
      "ĠÄłparad": 6870,
      "ĠÄłparas": 6871,
      "Ġproduct": 6872,
      "ĠÄłBeh": 6873,
      "ĠÄłBeck": 6874,
      "ĠINE": 6875,
      "ĠÄłconfir": 6876,
      "ĠÄłconfident": 6877,
      "Ġissance": 6878,
      "Ġaires": 6879,
      "Ġritten": 6880,
      "Ġportation": 6881,
      "Ġumbled": 6882,
      "Ġumblr": 6883,
      "Ġ],": 6884,
      "ĠÄłforb": 6885,
      "ĠÄłregard": 6886,
      "ĠIncre": 6887,
      "Ġoldown": 6888,
      "Ġollar": 6889,
      "ĠÄłdistract": 6890,
      "Ġanked": 6891,
      "ĠÄłremind": 6892,
      "ĠÄłremark": 6893,
      "ĠÄłBron": 6894,
      "Ġ=\"": 6895,
      "Ġ=-": 6896,
      "ĠÄłguess": 6897,
      "ĠÄłworks": 6898,
      "ĠORE": 6899,
      "ĠORK": 6900,
      "ugg": 6901,
      "Ġ()": 6902,
      "Ġecause": 6903,
      "Ġcover": 6904,
      "Ġcohol": 6905,
      "ĠChrist": 6906,
      "Ġifiers": 6907,
      "Ġcknow": 6908,
      "Ġplex": 6909,
      "Ġpleted": 6910,
      "ĠÄłColl": 6911,
      "ĠÄłCoun": 6912,
      "ĠÄłCook": 6913,
      "Ġbeat": 6914,
      "ĠÄłreturn": 6915,
      "ĠÄłretrie": 6916,
      "Ġnergy": 6917,
      "ĠÄłeven": 6918,
      "ĠÄłevac": 6919,
      "Ġushing": 6920,
      "Ġossible": 6921,
      "Ġhesis": 6922,
      "ĠÄłPhill": 6923,
      "ĠÄłPhys": 6924,
      "ĠÄłPhili": 6925,
      "ĠÄłextract": 6926,
      "ĠÄłrab": 6927,
      "ĠÄłrain": 6928,
      "Ġipple": 6929,
      "Ġmeric": 6930,
      "Ġmerce": 6931,
      "Ġmercial": 6932,
      "ĠÄłanti": 6933,
      "ĠÄłantid": 6934,
      "Ġventure": 6935,
      "ĠÄłhaz": 6936,
      "ĠÄłundermin": 6937,
      "ĠÄłcaf": 6938,
      "ĠÄłsmart": 6939,
      "ĠÄłsmell": 6940,
      "Ġername": 6941,
      "ĠÄłfeed": 6942,
      "ĠÄłfeat": 6943,
      "ĠÄłfell": 6944,
      "ĠÄłfeel": 6945,
      "ĠÄłEnh": 6946,
      "ĠÄłpresc": 6947,
      "ĠÄłdoll": 6948,
      "Ġmination": 6949,
      "ĠÄłmeth": 6950,
      "ĠÄłmethod": 6951,
      "ĠÄłmetaph": 6952,
      "ĠÄłMcG": 6953,
      "ĠÄłinstr": 6954,
      "ĠÄłstrong": 6955,
      "Ġatched": 6956,
      "ĠAND": 6957,
      "ĠANT": 6958,
      "ĠÄładvent": 6959,
      "ĠÄładvant": 6960,
      "Ġarms": 6961,
      "Ġiffs": 6962,
      "Ġifferent": 6963,
      "Ġooting": 6964,
      "Ġuffy": 6965,
      "Ġconom": 6966,
      "Ġerved": 6967,
      "Ġync": 6968,
      "Ġrams": 6969,
      "ĠREE": 6970,
      "ĠÄłexplan": 6971,
      "ĠÄłveh": 6972,
      "Ġarget": 6973,
      "Ġformance": 6974,
      "ĠÄłGuard": 6975,
      "ĠÄłbuck": 6976,
      "Ġreek": 6977,
      "Ġgered": 6978,
      "Ġduction": 6979,
      "Ġiques": 6980,
      "ĠÄłcarb": 6981,
      "ĠÄłCollect": 6982,
      "Ġithub": 6983,
      "ĠASE": 6984,
      "Ġefe": 6985,
      "Ġefully": 6986,
      "ĠÄłmisc": 6987,
      "ĠÄłmisunder": 6988,
      "ĠÄłfool": 6989,
      "ĠÄłImm": 6990,
      "ĠÄłproport": 6991,
      "ĠÄłpropag": 6992,
      "Ġuclear": 6993,
      "ĠÄłCarl": 6994,
      "ĠACE": 6995,
      "ĠACT": 6996,
      "Ġflow": 6997,
      "Ġflix": 6998,
      "ĠÄłsuppl": 6999,
      "ĠÄłembod": 7000,
      "ĠÄłembry": 7001,
      "ĠÄłembarrass": 7002,
      "ĠÄłdeliber": 7003,
      "ĠÄłterr": 7004,
      "ĠÄłterrit": 7005,
      "ĠÄłterror": 7006,
      "ĠÄłAbs": 7007,
      "ĠÄłTele": 7008,
      "ĠÄłFranc": 7009,
      "ĠÄłconced": 7010,
      "ĠÄłprotest": 7011,
      "Ġapters": 7012,
      "Ġlication": 7013,
      "Ġarning": 7014,
      "ĠÄłPrinc": 7015,
      "ĠOUT": 7016,
      "ĠLECT": 7017,
      "Ġiverse": 7018,
      "Ġiversal": 7019,
      "Ġceptions": 7020,
      "ĠÄłpursu": 7021,
      "anger": 7022,
      "Ġlined": 7023,
      "ĠÄłafford": 7024,
      "ĠAny": 7025,
      "Ġiscons": 7026,
      "ĠÄłEmer": 7027,
      "ĠÄłEmploy": 7028,
      "ĠÄłencl": 7029,
      "Ġverted": 7030,
      "ĠÄłIndust": 7031,
      "lete": 7032,
      "ĠÄłsimilar": 7033,
      "ĠÄłCorn": 7034,
      "Ġrawl": 7035,
      "ized": 7036,
      "Ġivery": 7037,
      "Ġools": 7038,
      "Ġoffs": 7039,
      "aterial": 7040,
      "Ġready": 7041,
      "ĠÄłoccas": 7042,
      "Ġaddy": 7043,
      "ĠÅĢ": 7044,
      "Ġmitt": 7045,
      "ĠÄłmedic": 7046,
      "Ġbacks": 7047,
      "ĠÄłelectro": 7048,
      "ĠÄłharass": 7049,
      "ĠÄłgrab": 7050,
      "ĠÄłgrav": 7051,
      "ĠRequ": 7052,
      "ĠRead": 7053,
      "ĠÄłcollaps": 7054,
      "Ġ{\"": 7055,
      "ĠÄłerr": 7056,
      "ĠÄłeru": 7057,
      "ĠÄłSyri": 7058,
      "ĠÄłBarb": 7059,
      "Ġgets": 7060,
      "ĠÄłvisual": 7061,
      "ĠÄłdispar": 7062,
      "ĠÄłirrit": 7063,
      "Ġoids": 7064,
      "Ġrison": 7065,
      "ĠÄłsecond": 7066,
      "Ġselves": 7067,
      "Ġputer": 7068,
      "ĠÄłmotor": 7069,
      "ĠÄłfilm": 7070,
      "ĠÄłrede": 7071,
      "Ġvals": 7072,
      "Ġvisor": 7073,
      "ĠÃ§Ä": 7074,
      "Ġomething": 7075,
      "Ġometimes": 7076,
      "ĠÄłspeed": 7077,
      "ĠÄłspeak": 7078,
      "ĠÄładdress": 7079,
      "ĠÄłannoy": 7080,
      "ĠÄłneglig": 7081,
      "ĠÄłÃ¢Ä«": 7082,
      "ĠÄłÃ¢Ä¸": 7083,
      "Ġributed": 7084,
      "Ġattered": 7085,
      "Ġattering": 7086,
      "Ġsych": 7087,
      "ĠÄłCrus": 7088,
      "ĠÄława": 7089,
      "Ġngth": 7090,
      "Ġalty": 7091,
      "Ġasket": 7092,
      "ĠÄłdevast": 7093,
      "lence": 7094,
      "ĠÄłsignific": 7095,
      "ĠÄłtempt": 7096,
      "ĠÄłtemper": 7097,
      "ĠÄłmultipl": 7098,
      "ĠConnect": 7099,
      "Ġospital": 7100,
      "Ġaints": 7101,
      "Ġainted": 7102,
      "ĠÄłRegist": 7103,
      "ĠÄłobser": 7104,
      "ĠÄłsquee": 7105,
      "Ġlights": 7106,
      "Ġtheless": 7107,
      "ĠÄłCann": 7108,
      "ĠÄłhorr": 7109,
      "ĠOWN": 7110,
      "ĠÄłInteg": 7111,
      "ĠUST": 7112,
      "ĠÄłclear": 7113,
      "Ġaturday": 7114,
      "ĠÄłpsychiat": 7115,
      "ĠÄłdivid": 7116,
      "ĠÄłSerge": 7117,
      "ĠÄłavoid": 7118,
      "ĠÄłPatri": 7119,
      "Ġagonist": 7120,
      "ĠÄłstead": 7121,
      "Ġrought": 7122,
      "Ġentially": 7123,
      "Ġessional": 7124,
      "ĠÄłConserv": 7125,
      "ĠÄłdiffere": 7126,
      "Ġihil": 7127,
      "ĠÄłsummar": 7128,
      "ĠÄłportray": 7129,
      "ĠÄłpopul": 7130,
      "Ġmetic": 7131,
      "ĠÄłPolit": 7132,
      "ĠÄłMedic": 7133,
      "ĠÄłBuck": 7134,
      "ĠÄłBroad": 7135,
      "ĠÄłBrook": 7136,
      "ĠÄłhelic": 7137,
      "ĠILL": 7138,
      "Ġdoor": 7139,
      "Ġolving": 7140,
      "ĠÄłnovel": 7141,
      "ĠÄłIntern": 7142,
      "ĠÄłObs": 7143,
      "Ġiberal": 7144,
      "ĠÄłcontinu": 7145,
      "ĠÄłapprox": 7146,
      "ĠÄłdescript": 7147,
      "ĠÄłiP": 7148,
      "Ġiamond": 7149,
      "ĠÄłsocial": 7150,
      "Ġcellent": 7151,
      "Ġloaded": 7152,
      "ĠÄłburg": 7153,
      "Ġnote": 7154,
      "Ġype": 7155,
      "Ġypes": 7156,
      "ĠÄłexperien": 7157,
      "ĠÄłexperiment": 7158,
      "ashion": 7159,
      "Ġirds": 7160,
      "ĠÄłnews": 7161,
      "Ġudden": 7162,
      "ĠÄ¨Ä´": 7163,
      "Ġiatric": 7164,
      "Ġeatures": 7165,
      "Ġrolled": 7166,
      "ĠÄłSky": 7167,
      "ĠÄłfavour": 7168,
      "ĠÄłActiv": 7169,
      "ĠÄłRober": 7170,
      "ĠÄłTHE": 7171,
      "ĠÄłhypot": 7172,
      "ĠÄłlaugh": 7173,
      "Ġrogen": 7174,
      "Ġrazy": 7175,
      "Ġimental": 7176,
      "Ġategory": 7177,
      "Ġivals": 7178,
      "ĠÄłAngel": 7179,
      "ĠÄłisol": 7180,
      "ĠÄłsched": 7181,
      "Ġtaining": 7182,
      "ĠÄłmole": 7183,
      "Ġburg": 7184,
      "ĠÄłrend": 7185,
      "ĠÄłParticip": 7186,
      "ĠÄłinnoc": 7187,
      "Ġolitical": 7188,
      "ĠÄłnarc": 7189,
      "ĠÄłIde": 7190,
      "ĠÄłIdent": 7191,
      "Ġrained": 7192,
      "ĠÄłdisappoint": 7193,
      "ĠÄłcounc": 7194,
      "ĠÄłcounsel": 7195,
      "ĠÄłLegisl": 7196,
      "ĠÃĤÅĤÃĤÅĤ": 7197,
      "ĠÄłdeterior": 7198,
      "aught": 7199,
      "Ã£Ä¤": 7200,
      "Ġ------------": 7201,
      "ĠÄłsleep": 7202,
      "ĠÄłpunish": 7203,
      "Ġpiring": 7204,
      "ĠÄłfundament": 7205,
      "ĠÄłrequest": 7206,
      "ĠÄłwrong": 7207,
      "Ġilitary": 7208,
      "ĠULL": 7209,
      "ĠÄłsubstant": 7210,
      "ĠÃ£Ä¥Ä¥": 7211,
      "ĠÃ£Ä¥Ä«": 7212,
      "ĠÄłAndre": 7213,
      "ĠÄłsymp": 7214,
      "print": 7215,
      "Ġorough": 7216,
      "ĠÄłSecond": 7217,
      "ĠÄłmyth": 7218,
      "Ġederal": 7219,
      "Ġederation": 7220,
      "Ġnetic": 7221,
      "ĠOOK": 7222,
      "Ġammed": 7223,
      "ĠÄłshowc": 7224,
      "Ġocaly": 7225,
      "ĠVERT": 7226,
      "Ġavorite": 7227,
      "ĠÄłcontrovers": 7228,
      "Ġ\":\"": 7229,
      "ĠÄłskept": 7230,
      "Ġochem": 7231,
      "Ġuzzle": 7232,
      "Ġsection": 7233,
      "Ġitzer": 7234,
      "ĠÄłbusiness": 7235,
      "ĠÄłbrill": 7236,
      "ĠÄłAfric": 7237,
      "Ġfortun": 7238,
      "ĠÄłnumer": 7239,
      "Ġchnology": 7240,
      "Ġulsion": 7241,
      "Ġanguage": 7242,
      "ĠÄłConstant": 7243,
      "Ġrespons": 7244,
      "ĠÄłprivile": 7245,
      "Ġuries": 7246,
      "Ġurious": 7247,
      "Ġinstein": 7248,
      "ĠÄłsacrific": 7249,
      "Ġpired": 7250,
      "Ġpires": 7251,
      "Ġaniel": 7252,
      "ĠÄłCamer": 7253,
      "ĠÄłtotal": 7254,
      "Ġiciary": 7255,
      "Ġwestern": 7256,
      "Ġidelines": 7257,
      "ĠÄłoverse": 7258,
      "ĠÄłstimul": 7259,
      "ĠÄłshould": 7260,
      "Ġogene": 7261,
      "ĠÄłcontempl": 7262,
      "Ġperty": 7263,
      "ĠÄłappreci": 7264,
      "ĠÄłEngine": 7265,
      "Ġ!!!": 7266,
      "Ã£Ä¥Ä¨": 7267,
      "ĠÄłneighbor": 7268,
      "ĠÄłneighbour": 7269,
      "ĠÄłcandid": 7270,
      "Ġsenal": 7271,
      "ĠÄłdimin": 7272,
      "ĠÄłCross": 7273,
      "Ġmouth": 7274,
      "ĠÄłmosqu": 7275,
      "ĠÄłAccount": 7276,
      "ĠÄłAustral": 7277,
      "ĠÄłLaure": 7278,
      "Ġelligence": 7279,
      "Ġforcement": 7280,
      "ĠÄłprofession": 7281,
      "Ġaturally": 7282,
      "Ġ****************": 7283,
      "Ġmakers": 7284,
      "ĠÄłmobil": 7285,
      "ĠÄłMarket": 7286,
      "ĠÄłliqu": 7287,
      "ĠÄłstabil": 7288,
      "Ġetheless": 7289,
      "ĠÄłvigil": 7290,
      "Ġchange": 7291,
      "ĠÄłspirit": 7292,
      "ĠÄłkidn": 7293,
      "ĠÃ¢Ä¢Äµ": 7294,
      "ĠÃ¢Ä¢ÄŃ": 7295,
      "Ġaucus": 7296,
      "Ġologists": 7297,
      "ĠÄłmanifest": 7298,
      "Ġ????": 7299,
      "Ġ?????": 7300,
      "ĠÄłestablish": 7301,
      "ĠEngine": 7302,
      "ĠÄłwithdraw": 7303,
      "ĠÄłphilosoph": 7304,
      "ING": 7305,
      "ĠÄłsomet": 7306,
      "ĠÄłdilig": 7307,
      "Ġhuman": 7308,
      "ĠEXT": 7309,
      "Ġknown": 7310,
      "Ġolutely": 7311,
      "ĠÄłunbel": 7312,
      "ĠÄłexhaust": 7313,
      "ĠÄłrisk": 7314,
      "ĠÄłUkrain": 7315,
      "ĠÄłcontrace": 7316,
      "ĠÄłphenomen": 7317,
      "ĠÄłaccompan": 7318,
      "Ġaternity": 7319,
      "ĠIGHT": 7320,
      "Ä¯Ã¥": 7321,
      "ĠÄłilleg": 7322,
      "Ġirable": 7323,
      "ĠÄłsidew": 7324,
      "Ġciples": 7325,
      "ĠÄłbureauc": 7326,
      "ĠÄłmunicip": 7327,
      "ĠÄłmigr": 7328,
      "ĠÄłAugust": 7329,
      "Ġleased": 7330,
      "ĠÄłcongrat": 7331,
      "Ġstruction": 7332,
      "ĠÄłvulner": 7333,
      "ĠÄłsucceed": 7334,
      "ĠÄłansw": 7335,
      "ividual": 7336,
      "Ġ;;;;": 7337,
      "Ġcyclop": 7338,
      "ĠÄłphotograp": 7339,
      "Ġ00000000": 7340,
      "Ġprisingly": 7341,
      "And": 7342,
      "urope": 7343,
      "Ġinitely": 7344,
      "ĠÄłcrowd": 7345,
      "ĠÄłself": 7346,
      "Ġparen": 7347,
      "ĠÄłdownt": 7348,
      "Ġlife": 7349,
      "Ġitutes": 7350,
      "ĠÄłbicy": 7351,
      "ĠAmeric": 7352,
      "ĠÄłsuprem": 7353,
      "ĠÄłspokes": 7354,
      "ĠÄłspawn": 7355,
      "Ġavascript": 7356,
      "ĠÄłPhilipp": 7357,
      "ĠÄłbureaucr": 7358,
      "-+": 7359,
      "36": 7360,
      "66": 7361,
      ">>": 7362,
      "AA": 7363,
      "AY": 7364,
      "Act": 7365,
      "BC": 7366,
      "EM": 7367,
      "HA": 7368,
      "IA": 7369,
      "IC": 7370,
      "IT": 7371,
      "In": 7372,
      "IED": 7373,
      "OG": 7374,
      "OO": 7375,
      "OU": 7376,
      "On": 7377,
      "PU": 7378,
      "QL": 7379,
      "RA": 7380,
      "SE": 7381,
      "To": 7382,
      "TON": 7383,
      "UD": 7384,
      "UG": 7385,
      "US": 7386,
      "VA": 7387,
      "aug": 7388,
      "bi": 7389,
      "ban": 7390,
      "book": 7391,
      "can": 7392,
      "com": 7393,
      "coh": 7394,
      "da": 7395,
      "down": 7396,
      "eu": 7397,
      "field": 7398,
      "force": 7399,
      "gu": 7400,
      "gun": 7401,
      "greg": 7402,
      "gorith": 7403,
      "hes": 7404,
      "hend": 7405,
      "ij": 7406,
      "iro": 7407,
      "ires": 7408,
      "iop": 7409,
      "ivery": 7410,
      "iament": 7411,
      "ihad": 7412,
      "jud": 7413,
      "just": 7414,
      "ka": 7415,
      "ky": 7416,
      "kee": 7417,
      "lo": 7418,
      "lav": 7419,
      "lisher": 7420,
      "liament": 7421,
      "mber": 7422,
      "necess": 7423,
      "ngth": 7424,
      "ois": 7425,
      "out": 7426,
      "oul": 7427,
      "off": 7428,
      "outh": 7429,
      "ould": 7430,
      "put": 7431,
      "power": 7432,
      "pool": 7433,
      "pose": 7434,
      "ran": 7435,
      "ration": 7436,
      "rison": 7437,
      "to": 7438,
      "ts": 7439,
      "uary": 7440,
      "uana": 7441,
      "vil": 7442,
      "wind": 7443,
      "xx": 7444,
      "xter": 7445,
      "yth": 7446,
      "{\"": 7447,
      "§ÄŃ": 7448,
      "Â¥": 7449,
      "Âº": 7450,
      "Ã¦": 7451,
      "Ä¦": 7452,
      "Ä²": 7453,
      "Ä³": 7454,
      "ÅĢ": 7455,
      "Ġ~~": 7456,
      "Ġ////": 7457,
      "ĠÄłic": 7458,
      "ĠÄłub": 7459,
      "ĠÄłvel": 7460,
      "ĠÄłrib": 7461,
      "Ġiar": 7462,
      "Ġipt": 7463,
      "Ġiop": 7464,
      "Ġiated": 7465,
      "Ġiors": 7466,
      "Ġiably": 7467,
      "Ġiability": 7468,
      "Ġiology": 7469,
      "Ġiaries": 7470,
      "Ġaos": 7471,
      "Ġauth": 7472,
      "Ġaque": 7473,
      "Ġaunder": 7474,
      "Ġauthor": 7475,
      "Ġoa": 7476,
      "Ġoat": 7477,
      "Ġois": 7478,
      "Ġoir": 7479,
      "Ġoard": 7480,
      "Ġoult": 7481,
      "Ġoak": 7482,
      "Ġeor": 7483,
      "Ġept": 7484,
      "Ġeous": 7485,
      "Ġelect": 7486,
      "rep": 7487,
      "reck": 7488,
      "report": 7489,
      "rehens": 7490,
      "onym": 7491,
      "Ġuf": 7492,
      "Ġuv": 7493,
      "Ġugh": 7494,
      "Ġuity": 7495,
      "Ġuable": 7496,
      "Ġuating": 7497,
      "Ġuates": 7498,
      "Ġuits": 7499,
      "Ġuilt": 7500,
      "ina": 7501,
      "ination": 7502,
      "Ġinv": 7503,
      "Ġinqu": 7504,
      "Ġinction": 7505,
      "Ġindu": 7506,
      "Ġinence": 7507,
      "Ġinform": 7508,
      "Ġinement": 7509,
      "Ġinates": 7510,
      "Ġinery": 7511,
      "ĠÄłcit": 7512,
      "ĠÄłcri": 7513,
      "ĠÄłcum": 7514,
      "ĠÄłcher": 7515,
      "ĠÄłcust": 7516,
      "ĠÄłcub": 7517,
      "ĠÄłcav": 7518,
      "ĠÄłcyn": 7519,
      "ĠÄłcatch": 7520,
      "ĠÄłcinem": 7521,
      "ĠÄłcabin": 7522,
      "Ġrc": 7523,
      "Ġrd": 7524,
      "Ġrar": 7525,
      "Ġrity": 7526,
      "Ġrons": 7527,
      "Ġrary": 7528,
      "Ġrance": 7529,
      "Ġrative": 7530,
      "Ġrator": 7531,
      "ĠÄłsed": 7532,
      "ĠÄłsar": 7533,
      "ĠÄłsad": 7534,
      "ĠÄłsect": 7535,
      "ĠÄłsort": 7536,
      "ĠÄłsab": 7537,
      "ĠÄłsate": 7538,
      "ĠÄłsight": 7539,
      "ĠÄłsour": 7540,
      "ĠÄłsail": 7541,
      "ĠÄłsix": 7542,
      "ĠÄłsadd": 7543,
      "ĠÄłsize": 7544,
      "Ġatre": 7545,
      "Ġaton": 7546,
      "Ġatility": 7547,
      "Ġatile": 7548,
      "Ġatible": 7549,
      "Ġatisf": 7550,
      "Ġativity": 7551,
      "edreport": 7552,
      "Ġsi": 7553,
      "Ġsim": 7554,
      "Ġsers": 7555,
      "Ġsub": 7556,
      "Ġsure": 7557,
      "Ġsight": 7558,
      "Ġsche": 7559,
      "alg": 7560,
      "alse": 7561,
      "ĠÄłput": 7562,
      "ĠÄłpel": 7563,
      "ĠÄłpul": 7564,
      "ĠÄłpig": 7565,
      "ĠÄłpest": 7566,
      "ĠÄłpiv": 7567,
      "ĠÄłpie": 7568,
      "ĠÄłpark": 7569,
      "ĠÄłpup": 7570,
      "ĠÄłpsy": 7571,
      "ĠÄłpier": 7572,
      "ĠÄłpanc": 7573,
      "Ġcp": 7574,
      "Ġcus": 7575,
      "Ġcem": 7576,
      "Ġcow": 7577,
      "Ġcig": 7578,
      "Ġcest": 7579,
      "Ġcled": 7580,
      "Ġcend": 7581,
      "Ġcamp": 7582,
      "Ġcott": 7583,
      "Ġcision": 7584,
      "arcer": 7585,
      "Ġpu": 7586,
      "Ġpet": 7587,
      "Ġpel": 7588,
      "Ġpol": 7589,
      "Ġpop": 7590,
      "Ġpage": 7591,
      "Ġpict": 7592,
      "Ġpace": 7593,
      "Ġpatch": 7594,
      "Ġpool": 7595,
      "anim": 7596,
      "ange": 7597,
      "order": 7598,
      "ĠÄłda": 7599,
      "ĠÄłdy": 7600,
      "ĠÄłdin": 7601,
      "ĠÄłdid": 7602,
      "ĠÄłdod": 7603,
      "ĠÄłday": 7604,
      "ĠÄłdog": 7605,
      "ĠÄłdub": 7606,
      "ĠÄłdou": 7607,
      "ĠÄłdress": 7608,
      "ĠÄłdump": 7609,
      "ĠÄłdread": 7610,
      "ĠÄłdrown": 7611,
      "ĠÄłdwar": 7612,
      "ĠÄłdwell": 7613,
      "ĠÄłdanger": 7614,
      "Ġln": 7615,
      "Ġlan": 7616,
      "Ġlat": 7617,
      "Ġlad": 7618,
      "Ġlay": 7619,
      "Ġlies": 7620,
      "Ġlder": 7621,
      "Ġlord": 7622,
      "Ġlah": 7623,
      "Ġlarg": 7624,
      "Ġliter": 7625,
      "Ġlamm": 7626,
      "Ġlarge": 7627,
      "ĠÄłSD": 7628,
      "ĠÄłSN": 7629,
      "ĠÄłSi": 7630,
      "ĠÄłSar": 7631,
      "ĠÄłSem": 7632,
      "ĠÄłSir": 7633,
      "ĠÄłSas": 7634,
      "ĠÄłSpl": 7635,
      "ĠÄłSund": 7636,
      "ĠÄłSold": 7637,
      "ĠÄłSug": 7638,
      "ĠÄłSyn": 7639,
      "ĠÄłSiber": 7640,
      "ĠÄłSix": 7641,
      "ĠÄłSov": 7642,
      "ĠÄłSoph": 7643,
      "ĠÄłSorce": 7644,
      "ĠÄłSaud": 7645,
      "ati": 7646,
      "ators": 7647,
      "atory": 7648,
      "atisf": 7649,
      "Ġanut": 7650,
      "Ġanim": 7651,
      "Ġanas": 7652,
      "Ġanish": 7653,
      "Ġanium": 7654,
      "Ġanwh": 7655,
      "Ġtem": 7656,
      "Ġtest": 7657,
      "Ġtics": 7658,
      "Ġthere": 7659,
      "Ġtarian": 7660,
      "ĠÄłCD": 7661,
      "ĠÄłCS": 7662,
      "ĠÄłCra": 7663,
      "ĠÄłCow": 7664,
      "ĠÄłCand": 7665,
      "ĠÄłCas": 7666,
      "ĠÄłCod": 7667,
      "ĠÄłCort": 7668,
      "ĠÄłCher": 7669,
      "ĠÄłCant": 7670,
      "ĠÄłCoc": 7671,
      "ĠÄłCass": 7672,
      "ĠÄłCav": 7673,
      "ĠÄłCry": 7674,
      "ĠÄłCare": 7675,
      "ĠÄłCob": 7676,
      "ĠÄłCind": 7677,
      "ĠÄłCrit": 7678,
      "ĠÄłCell": 7679,
      "ĠÄłCapt": 7680,
      "Ġmel": 7681,
      "Ġmem": 7682,
      "Ġmad": 7683,
      "Ġmid": 7684,
      "Ġmir": 7685,
      "Ġmay": 7686,
      "Ġmund": 7687,
      "Ġmos": 7688,
      "Ġmons": 7689,
      "Ġmia": 7690,
      "Ġmare": 7691,
      "Ġmind": 7692,
      "Ġmeg": 7693,
      "Ġmosp": 7694,
      "Ġiti": 7695,
      "Ġito": 7696,
      "Ġitar": 7697,
      "Ġitic": 7698,
      "Ġitect": 7699,
      "Ġitate": 7700,
      "Ġitled": 7701,
      "Ġitated": 7702,
      "Ġitary": 7703,
      "Ġitage": 7704,
      "Ġitual": 7705,
      "Ġitime": 7706,
      "Ġitives": 7707,
      "Ġitivity": 7708,
      "Ġera": 7709,
      "Ġerred": 7710,
      "Ġerate": 7711,
      "Ġerie": 7712,
      "eness": 7713,
      "ĠÄłtu": 7714,
      "ĠÄłton": 7715,
      "ĠÄłtar": 7716,
      "ĠÄłtent": 7717,
      "ĠÄłtom": 7718,
      "ĠÄłtort": 7719,
      "ĠÄłtag": 7720,
      "ĠÄłtac": 7721,
      "ĠÄłtown": 7722,
      "ĠÄłtiss": 7723,
      "ĠÄłtail": 7724,
      "ĠÄłtong": 7725,
      "ĠÄłtrop": 7726,
      "ĠÄłtang": 7727,
      "ĠÄłtatt": 7728,
      "ĠÄłtalk": 7729,
      "ĠÄłtodd": 7730,
      "Ġicz": 7731,
      "Ġiche": 7732,
      "Ġicans": 7733,
      "Ġicag": 7734,
      "Ġicides": 7735,
      "ĠÄłaqu": 7736,
      "ĠÄłaest": 7737,
      "ĠÄłaug": 7738,
      "Ġarus": 7739,
      "Ġaration": 7740,
      "Ġaria": 7741,
      "Ġarrow": 7742,
      "Ġaround": 7743,
      "ĠÄłber": 7744,
      "ĠÄłbon": 7745,
      "ĠÄłbest": 7746,
      "ĠÄłbip": 7747,
      "ĠÄłbub": 7748,
      "ĠÄłbour": 7749,
      "ĠÄłbind": 7750,
      "ĠÄłbarg": 7751,
      "ĠÄłbless": 7752,
      "ĠÄłbapt": 7753,
      "ĠÄłmes": 7754,
      "ĠÄłmic": 7755,
      "ĠÄłmart": 7756,
      "ĠÄłmail": 7757,
      "ros": 7758,
      "roup": 7759,
      "Ġbes": 7760,
      "Ġbra": 7761,
      "Ġbut": 7762,
      "Ġbus": 7763,
      "Ġbas": 7764,
      "Ġbest": 7765,
      "Ġbial": 7766,
      "Ġbie": 7767,
      "Ġbust": 7768,
      "Ġbish": 7769,
      "Ġburn": 7770,
      "Ġbase": 7771,
      "Ġbott": 7772,
      "Ġbaugh": 7773,
      "Ġbps": 7774,
      "Ġho": 7775,
      "Ġhy": 7776,
      "Ġhal": 7777,
      "Ġhan": 7778,
      "Ġhus": 7779,
      "Ġhot": 7780,
      "Ġhig": 7781,
      "Ġhall": 7782,
      "Ġhou": 7783,
      "Ġhend": 7784,
      "Ġhtt": 7785,
      "Ġhatt": 7786,
      "Ġhov": 7787,
      "Ġhyd": 7788,
      "Ġhots": 7789,
      "Ġhran": 7790,
      "Ġorp": 7791,
      "Ġorer": 7792,
      "Ġorus": 7793,
      "Ġorate": 7794,
      "Ġorph": 7795,
      "Ġorical": 7796,
      "Ġorable": 7797,
      "Ġorget": 7798,
      "ĠÄłfan": 7799,
      "ĠÄłfel": 7800,
      "ĠÄłfly": 7801,
      "ĠÄłfib": 7802,
      "ĠÄłfight": 7803,
      "ĠÄłfour": 7804,
      "ĠÄłfict": 7805,
      "ĠÄłfright": 7806,
      "ĠÄłflex": 7807,
      "ĠÄłfarm": 7808,
      "ĠÄłfuel": 7809,
      "ĠÄłfault": 7810,
      "ĠÄłfirm": 7811,
      "ĠÄłfashion": 7812,
      "ĠÄłfalse": 7813,
      "Ġenf": 7814,
      "Ġenh": 7815,
      "Ġenes": 7816,
      "Ġenment": 7817,
      "Ġenary": 7818,
      "Ġeneg": 7819,
      "ĠÄłrect": 7820,
      "ĠÄłreun": 7821,
      "ĠÄłreim": 7822,
      "ĠÄłrehe": 7823,
      "ĠÄłrevel": 7824,
      "ĠÄłreleg": 7825,
      "ĠÄłreiter": 7826,
      "ĠÄłreward": 7827,
      "ĠÄłrelent": 7828,
      "ĠÄłrehab": 7829,
      "enth": 7830,
      "Ġedge": 7831,
      "Ġeduc": 7832,
      "Ġedience": 7833,
      "ĠedIn": 7834,
      "ĠÄłPA": 7835,
      "ĠÄłPed": 7836,
      "ĠÄłPur": 7837,
      "ĠÄłPut": 7838,
      "ĠÄłPel": 7839,
      "ĠÄłPil": 7840,
      "ĠÄłPir": 7841,
      "ĠÄłPow": 7842,
      "ĠÄłPas": 7843,
      "ĠÄłPist": 7844,
      "ĠÄłPop": 7845,
      "ĠÄłPant": 7846,
      "ĠÄłPack": 7847,
      "ĠÄłPast": 7848,
      "ĠÄłPain": 7849,
      "ĠÄłPac": 7850,
      "ĠÄłPap": 7851,
      "ĠÄłPak": 7852,
      "ĠÄłPract": 7853,
      "ĠÄłPict": 7854,
      "ĠÄłPix": 7855,
      "ĠÄłPenn": 7856,
      "ĠÄłPier": 7857,
      "Ġrees": 7858,
      "Ġrell": 7859,
      "Ġreck": 7860,
      "Ġreement": 7861,
      "Ġreprene": 7862,
      "ĠÄłAF": 7863,
      "ĠÄłAh": 7864,
      "ĠÄłAk": 7865,
      "ĠÄłAer": 7866,
      "ĠÄłAre": 7867,
      "ĠÄłAle": 7868,
      "ĠÄłAri": 7869,
      "ĠÄłAff": 7870,
      "ĠÄłAuth": 7871,
      "ĠÄłAccess": 7872,
      "ĠÄłAven": 7873,
      "ĠÄłACT": 7874,
      "ĠÄłAchie": 7875,
      "ĠÄłMA": 7876,
      "ĠÄłMun": 7877,
      "ĠÄłMom": 7878,
      "ĠÄłMut": 7879,
      "ĠÄłMist": 7880,
      "ĠÄłMill": 7881,
      "ĠÄłMore": 7882,
      "ĠÄłMob": 7883,
      "ĠÄłMount": 7884,
      "ĠÄłMaur": 7885,
      "ĠÄłMaj": 7886,
      "ications": 7887,
      "icient": 7888,
      "Ġvo": 7889,
      "Ġvan": 7890,
      "Ġvid": 7891,
      "Ġvable": 7892,
      "Ġviol": 7893,
      "Ġviron": 7894,
      "iti": 7895,
      "ited": 7896,
      "itan": 7897,
      "itial": 7898,
      "itrom": 7899,
      "unk": 7900,
      "ĠÄłBE": 7901,
      "ĠÄłBL": 7902,
      "ĠÄłBi": 7903,
      "ĠÄłBon": 7904,
      "ĠÄłBal": 7905,
      "ĠÄłBan": 7906,
      "ĠÄłBat": 7907,
      "ĠÄłBit": 7908,
      "ĠÄłBir": 7909,
      "ĠÄłBay": 7910,
      "ĠÄłBec": 7911,
      "ĠÄłBack": 7912,
      "ĠÄłBill": 7913,
      "ĠÄłBru": 7914,
      "ĠÄłBrad": 7915,
      "ĠÄłBark": 7916,
      "ĠÄłBull": 7917,
      "ĠÄłBrow": 7918,
      "ĠÄłBook": 7919,
      "ĠÄłBase": 7920,
      "ĠÄłBott": 7921,
      "ĠÄłBrown": 7922,
      "ĠÄłBrend": 7923,
      "ĠÄłBalt": 7924,
      "omb": 7925,
      "omer": 7926,
      "omet": 7927,
      "Ġnan": 7928,
      "Ġnor": 7929,
      "Ġnut": 7930,
      "Ġnest": 7931,
      "Ġnorm": 7932,
      "Ġnant": 7933,
      "Ġnia": 7934,
      "Ġnces": 7935,
      "Ġname": 7936,
      "Ġnox": 7937,
      "Ġnecess": 7938,
      "ĠÃ«": 7939,
      "ĠÃ¬": 7940,
      "ĠÃ°": 7941,
      "ĠÃĭ": 7942,
      "Ġgd": 7943,
      "Ġgal": 7944,
      "Ġgor": 7945,
      "Ġgom": 7946,
      "Ġgate": 7947,
      "Ġgement": 7948,
      "Ġgorith": 7949,
      "Ġyon": 7950,
      "Ġyes": 7951,
      "Ġyss": 7952,
      "Ġyles": 7953,
      "Ġyond": 7954,
      "ĠÄłech": 7955,
      "ĠÄłeleg": 7956,
      "ĠÄłelement": 7957,
      "ĠÄłeuro": 7958,
      "ĠAV": 7959,
      "ĠAc": 7960,
      "ĠAf": 7961,
      "ĠAg": 7962,
      "ĠAnt": 7963,
      "ĠAut": 7964,
      "ĠAction": 7965,
      "Ġfr": 7966,
      "Ġfle": 7967,
      "Ġfare": 7968,
      "Ġfix": 7969,
      "Ġfunction": 7970,
      "ĠÄłinad": 7971,
      "ĠÄłinequ": 7972,
      "ĠÄłinacc": 7973,
      "ĠÄłinev": 7974,
      "ĠÄłinaug": 7975,
      "ĠÄłRon": 7976,
      "ĠÄłRat": 7977,
      "ĠÄłRus": 7978,
      "ĠÄłRow": 7979,
      "ĠÄłRud": 7980,
      "ĠÄłRog": 7981,
      "ĠÄłRap": 7982,
      "ĠÄłRoy": 7983,
      "ĠÄłRail": 7984,
      "ĠÄłRah": 7985,
      "Ġoner": 7986,
      "Ġoned": 7987,
      "Ġonut": 7988,
      "Ġonel": 7989,
      "Ġongh": 7990,
      "Ġonies": 7991,
      "Ġonest": 7992,
      "Ġonduct": 7993,
      "Ġisa": 7994,
      "Ġisl": 7995,
      "Ġisen": 7996,
      "Ġisit": 7997,
      "Ġisdom": 7998,
      "Ġalion": 7999,
      "Ġalid": 8000,
      "Ġalia": 8001,
      "Ġalyst": 8002,
      "ĠÄłTam": 8003,
      "ĠÄłTot": 8004,
      "ĠÄłTas": 8005,
      "ĠÄłTher": 8006,
      "ĠÄłTest": 8007,
      "ĠÄłTop": 8008,
      "ĠÄłTib": 8009,
      "ĠÄłTok": 8010,
      "ĠÄłTru": 8011,
      "ĠÄłToy": 8012,
      "ĠÄłTact": 8013,
      "ĠÄłTreat": 8014,
      "ĠÄłTyp": 8015,
      "ĠÄłTex": 8016,
      "ĠÄłTax": 8017,
      "ĠÄłTenn": 8018,
      "ĠÄłTai": 8019,
      "ĠÄłTsu": 8020,
      "ĠÄłhat": 8021,
      "ĠÄłhit": 8022,
      "ĠÄłhus": 8023,
      "ĠÄłhem": 8024,
      "ĠÄłhig": 8025,
      "ĠÄłhorm": 8026,
      "ĠÄłhack": 8027,
      "ĠÄłhint": 8028,
      "ĠÄłhour": 8029,
      "ĠÄłhind": 8030,
      "ĠÄłhug": 8031,
      "ĠÄłhtt": 8032,
      "ĠÄłhook": 8033,
      "ĠÄłhang": 8034,
      "ĠÄłhurd": 8035,
      "ĠÄłhouse": 8036,
      "ĠÄłhyster": 8037,
      "ĠÄłheter": 8038,
      "ĠÄłhipp": 8039,
      "ĠÄłhij": 8040,
      "ĠÄłDI": 8041,
      "ĠÄłDM": 8042,
      "ĠÄłDa": 8043,
      "ĠÄłDu": 8044,
      "ĠÄłDer": 8045,
      "ĠÄłDal": 8046,
      "ĠÄłDom": 8047,
      "ĠÄłDur": 8048,
      "ĠÄłDim": 8049,
      "ĠÄłDig": 8050,
      "ĠÄłDub": 8051,
      "ĠÄłDoc": 8052,
      "ĠÄłDick": 8053,
      "ĠÄłDian": 8054,
      "ĠÄłDaw": 8055,
      "ĠÄłDIS": 8056,
      "ĠÄłDani": 8057,
      "Ġlem": 8058,
      "Ġlead": 8059,
      "Ġlene": 8060,
      "isd": 8061,
      "isan": 8062,
      "urity": 8063,
      "urther": 8064,
      "cher": 8065,
      "ĠSH": 8066,
      "ĠSn": 8067,
      "ĠSy": 8068,
      "ĠSet": 8069,
      "ĠSem": 8070,
      "ĠSum": 8071,
      "ĠShe": 8072,
      "ĠServ": 8073,
      "ĠSON": 8074,
      "ĠSQL": 8075,
      "ĠEv": 8076,
      "ĠEnt": 8077,
      "ĠEffect": 8078,
      "ĠEAR": 8079,
      "ets": 8080,
      "ety": 8081,
      "ette": 8082,
      "ĠÄłgor": 8083,
      "ĠÄłget": 8084,
      "ĠÄłgad": 8085,
      "ĠÄłgive": 8086,
      "ĠÄłgard": 8087,
      "ĠÄłgast": 8088,
      "ĠÄłgif": 8089,
      "ĠÄłgob": 8090,
      "ĠÄłgren": 8091,
      "ĠÄłgodd": 8092,
      "ĠÄłgrie": 8093,
      "ĠÄłgirl": 8094,
      "ĠÄłgentle": 8095,
      "raq": 8096,
      "utch": 8097,
      "utical": 8098,
      "ĠÄłHu": 8099,
      "ĠÄłHen": 8100,
      "ĠÄłHit": 8101,
      "ĠÄłHur": 8102,
      "ĠÄłHem": 8103,
      "ĠÄłHas": 8104,
      "ĠÄłHig": 8105,
      "ĠÄłHop": 8106,
      "ĠÄłHans": 8107,
      "ĠÄłHub": 8108,
      "ĠÄłHend": 8109,
      "ĠÄłHind": 8110,
      "ĠÄłHug": 8111,
      "ĠÄłHaz": 8112,
      "ĠÄłHyd": 8113,
      "ĠÄłHuff": 8114,
      "ĠÄłHait": 8115,
      "ĠÄłHiro": 8116,
      "ĠIX": 8117,
      "ĠId": 8118,
      "ĠIED": 8119,
      "ĠÄłFA": 8120,
      "ĠÄłFO": 8121,
      "ĠÄłFer": 8122,
      "ĠÄłFle": 8123,
      "ĠÄłFed": 8124,
      "ĠÄłFal": 8125,
      "ĠÄłFro": 8126,
      "ĠÄłFun": 8127,
      "ĠÄłFem": 8128,
      "ĠÄłFant": 8129,
      "ĠÄłFram": 8130,
      "ĠÄłFren": 8131,
      "ĠÄłFair": 8132,
      "ĠÄłFarm": 8133,
      "ĠÄłFitz": 8134,
      "ĠÄłFried": 8135,
      "ĠÄłLE": 8136,
      "ĠÄłLI": 8137,
      "ĠÄłLi": 8138,
      "ĠÄłLin": 8139,
      "ĠÄłLes": 8140,
      "ĠÄłLen": 8141,
      "ĠÄłLic": 8142,
      "ĠÄłLam": 8143,
      "ĠÄłLad": 8144,
      "ĠÄłLie": 8145,
      "ĠÄłLoc": 8146,
      "ĠÄłLore": 8147,
      "ĠÄłLight": 8148,
      "ĠÄłLoad": 8149,
      "ĠÄłLith": 8150,
      "ĠÄłLook": 8151,
      "ĠÄłLabor": 8152,
      "ĠÄłLike": 8153,
      "ĠÄłLaur": 8154,
      "ĠÄłLanc": 8155,
      "ĠÄłlot": 8156,
      "ĠÄłlad": 8157,
      "ĠÄłlod": 8158,
      "ĠÄłlip": 8159,
      "ĠÄłlie": 8160,
      "ĠÄłlarg": 8161,
      "ĠÄłluc": 8162,
      "ĠÄłlang": 8163,
      "ĠÄłlapt": 8164,
      "ĠÄłlabor": 8165,
      "ĠÄłlarge": 8166,
      "ĠÄłlinem": 8167,
      "ĠÄłlux": 8168,
      "ush": 8169,
      "used": 8170,
      "Ġwr": 8171,
      "Ġww": 8172,
      "Ġwal": 8173,
      "Ġwan": 8174,
      "Ġwhe": 8175,
      "Ġwart": 8176,
      "Ġwall": 8177,
      "Ġwag": 8178,
      "Ġwik": 8179,
      "Ġwatch": 8180,
      "Ġdr": 8181,
      "Ġdy": 8182,
      "Ġdon": 8183,
      "Ġdin": 8184,
      "Ġded": 8185,
      "Ġding": 8186,
      "Ġdro": 8187,
      "Ġdet": 8188,
      "Ġdel": 8189,
      "Ġdam": 8190,
      "Ġdest": 8191,
      "Ġdie": 8192,
      "Ġdep": 8193,
      "ĠÄłwand": 8194,
      "ĠÄłwall": 8195,
      "ĠÄłware": 8196,
      "ĠÄłwire": 8197,
      "ĠÄłword": 8198,
      "ĠÄłwield": 8199,
      "ĠÄłwatch": 8200,
      "ĠÄłwalk": 8201,
      "ĠÄłwedd": 8202,
      "ĠÄłwonder": 8203,
      "ĠÄłwreck": 8204,
      "ĠÄłGN": 8205,
      "ĠÄłGO": 8206,
      "ĠÄłGa": 8207,
      "ĠÄłGun": 8208,
      "ĠÄłGet": 8209,
      "ĠÄłGil": 8210,
      "ĠÄłGard": 8211,
      "ĠÄłGreat": 8212,
      "ĠÄłGodd": 8213,
      "ĠÄłGoth": 8214,
      "ĠÄłGRE": 8215,
      "ĠÄłGhost": 8216,
      "Ġasm": 8217,
      "Ġasive": 8218,
      "Ġasks": 8219,
      "Ġasma": 8220,
      "Ġasury": 8221,
      "ĠCre": 8222,
      "ĠCal": 8223,
      "ĠCan": 8224,
      "ĠCON": 8225,
      "ĠCrit": 8226,
      "ĠCong": 8227,
      "ĠCapt": 8228,
      "olitan": 8229,
      "ĠÄłES": 8230,
      "ĠÄłEX": 8231,
      "ĠÄłEc": 8232,
      "ĠÄłEle": 8233,
      "ĠÄłEag": 8234,
      "ĠÄłElement": 8235,
      "ĠÄłEffect": 8236,
      "ĠÄłEarth": 8237,
      "ĠÄłEgy": 8238,
      "ĠÄłEduc": 8239,
      "ĠÄłEurope": 8240,
      "Ġidy": 8241,
      "Ġidal": 8242,
      "Ġidget": 8243,
      "Ġidges": 8244,
      "imately": 8245,
      "erson": 8246,
      "ĠOut": 8247,
      "ĠOther": 8248,
      "Ġaman": 8249,
      "Ġamation": 8250,
      "Ġamph": 8251,
      "Ġamine": 8252,
      "Ġamac": 8253,
      "Ġamber": 8254,
      "ĠÄłconqu": 8255,
      "ĠPE": 8256,
      "ĠPI": 8257,
      "ĠPN": 8258,
      "ĠPT": 8259,
      "ĠPe": 8260,
      "ĠPal": 8261,
      "ĠPat": 8262,
      "ĠPut": 8263,
      "ĠPart": 8264,
      "ĠPub": 8265,
      "ĠPoint": 8266,
      "ĠPOR": 8267,
      "ĠPriv": 8268,
      "ĠPerson": 8269,
      "Ġesp": 8270,
      "Ġesity": 8271,
      "Ġesides": 8272,
      "Ġagers": 8273,
      "Ġagine": 8274,
      "Ġagram": 8275,
      "Ġagraph": 8276,
      "ĠÄłoun": 8277,
      "ĠÄłour": 8278,
      "ĠÄłoption": 8279,
      "ĠÄłother": 8280,
      "ĠÄłodd": 8281,
      "Ġked": 8282,
      "Ġkers": 8283,
      "Ġkill": 8284,
      "Ġknow": 8285,
      "ĠÄłstro": 8286,
      "ĠÄłstation": 8287,
      "ĠÄłstem": 8288,
      "ĠÄłstir": 8289,
      "ĠÄłstay": 8290,
      "ĠÄłstorm": 8291,
      "ĠÄłstraw": 8292,
      "ĠÄłstagn": 8293,
      "ĠÄłstuff": 8294,
      "Ġoler": 8295,
      "Ġolver": 8296,
      "Ġolas": 8297,
      "Ġolder": 8298,
      "Ġolars": 8299,
      "Ġroit": 8300,
      "Ġ100": 8301,
      "ĠÄłna": 8302,
      "ĠÄłner": 8303,
      "ĠÄłnation": 8304,
      "ĠÄłnam": 8305,
      "ĠÄłnow": 8306,
      "ĠÄłnas": 8307,
      "ĠÄłnort": 8308,
      "ĠÄłnons": 8309,
      "ĠÄłnick": 8310,
      "ĠÄłnorth": 8311,
      "ĠÄłnodd": 8312,
      "ĠÄłnurt": 8313,
      "ĠTE": 8314,
      "ĠTF": 8315,
      "ĠTO": 8316,
      "ĠTV": 8317,
      "ĠTY": 8318,
      "ĠTer": 8319,
      "ĠTor": 8320,
      "ĠTur": 8321,
      "ĠTra": 8322,
      "ĠTop": 8323,
      "ĠTON": 8324,
      "ĠTube": 8325,
      "ĠÄłIM": 8326,
      "ĠÄłIv": 8327,
      "ĠÄłIce": 8328,
      "ĠÄłIraq": 8329,
      "Ġabis": 8330,
      "Ġabil": 8331,
      "Ġabling": 8332,
      "Ġabama": 8333,
      "Ġablo": 8334,
      "ĠÄłWW": 8335,
      "ĠÄłWr": 8336,
      "ĠÄłWy": 8337,
      "ĠÄłWed": 8338,
      "ĠÄłWor": 8339,
      "ĠÄłWat": 8340,
      "ĠÄłWall": 8341,
      "ĠÄłWith": 8342,
      "ĠÄłWell": 8343,
      "ĠÄłWater": 8344,
      "ĠÄłWalk": 8345,
      "ĠÄłWrest": 8346,
      "ĠÄłWorld": 8347,
      "ĠÄłWonder": 8348,
      "ĠÄłWolf": 8349,
      "ĠÄłNa": 8350,
      "ĠÄłNut": 8351,
      "ĠÄłNort": 8352,
      "ĠÄłNav": 8353,
      "ĠÄłNight": 8354,
      "ĠÄłNep": 8355,
      "ĠÄłNorth": 8356,
      "ĠÄłNiet": 8357,
      "ĠÄłNOT": 8358,
      "Ġete": 8359,
      "Ġetry": 8360,
      "Ġetition": 8361,
      "Ġetics": 8362,
      "Ġetime": 8363,
      "Ġraq": 8364,
      "Ġrait": 8365,
      "Ġrael": 8366,
      "Ġrage": 8367,
      "Ġrament": 8368,
      "Ġraine": 8369,
      "Ġraged": 8370,
      "Ġraham": 8371,
      "rial": 8372,
      "Ġilst": 8373,
      "Ġille": 8374,
      "Ġilies": 8375,
      "Ġilog": 8376,
      "Ġilib": 8377,
      "Ġilight": 8378,
      "Ġoter": 8379,
      "Ġoton": 8380,
      "Ġoting": 8381,
      "Ġotation": 8382,
      "Ġotos": 8383,
      "Ġotine": 8384,
      "ula": 8385,
      "ulpt": 8386,
      "ulations": 8387,
      "ĠRL": 8388,
      "ĠRet": 8389,
      "ĠROR": 8390,
      "ĠRuss": 8391,
      "ĠRedd": 8392,
      "ĠMI": 8393,
      "ĠMem": 8394,
      "ĠMay": 8395,
      "ĠMult": 8396,
      "ĠMich": 8397,
      "Ġriel": 8398,
      "Ġriers": 8399,
      "Ġriors": 8400,
      "Ġuru": 8401,
      "Ġurry": 8402,
      "Ġurse": 8403,
      "Ġurities": 8404,
      "Ġurrection": 8405,
      "employ": 8406,
      "Ġstat": 8407,
      "Ġstation": 8408,
      "Ġstud": 8409,
      "Ġstart": 8410,
      "Ġstop": 8411,
      "Ġstorm": 8412,
      "Ġstore": 8413,
      "Ġstage": 8414,
      "Ġstood": 8415,
      "Ġstick": 8416,
      "Ġstock": 8417,
      "Ġstell": 8418,
      "Ġstair": 8419,
      "Ġstrous": 8420,
      "Ġstitial": 8421,
      "Ġada": 8422,
      "Ġadian": 8423,
      "Ġadition": 8424,
      "Ġadium": 8425,
      "Ġadvert": 8426,
      "Ġadata": 8427,
      "ĠDr": 8428,
      "ĠDam": 8429,
      "ĠDate": 8430,
      "ĠDial": 8431,
      "ĠDirect": 8432,
      "amon": 8433,
      "amine": 8434,
      "ĠÄłune": 8435,
      "ĠÄłunre": 8436,
      "ĠÄłunst": 8437,
      "ĠÄłunle": 8438,
      "ĠÄłunus": 8439,
      "ĠÄłunim": 8440,
      "ĠÄłunif": 8441,
      "ĠÄłunpre": 8442,
      "ĠÄłunnecess": 8443,
      "ĠÄłunanim": 8444,
      "ĠÄłunemploy": 8445,
      "Ġenter": 8446,
      "Ġentle": 8447,
      "ĠBL": 8448,
      "ĠBN": 8449,
      "ĠBro": 8450,
      "ĠBas": 8451,
      "ĠBeg": 8452,
      "ĠBrit": 8453,
      "ĠBuy": 8454,
      "ĠBUG": 8455,
      "Ġusc": 8456,
      "Ġusk": 8457,
      "Ġusp": 8458,
      "Ġuser": 8459,
      "Ġusions": 8460,
      "ota": 8461,
      "ĠÄłvom": 8462,
      "ĠÄłvou": 8463,
      "ĠÄłvend": 8464,
      "ĠÄłvert": 8465,
      "ĠÄłvide": 8466,
      "ĠÄłdele": 8467,
      "Ġersed": 8468,
      "adow": 8469,
      "Ġima": 8470,
      "Ġimp": 8471,
      "Ġimen": 8472,
      "Ġimation": 8473,
      "Ġimore": 8474,
      "Ġimated": 8475,
      "Ġimmer": 8476,
      "Ġimedia": 8477,
      "ĠFP": 8478,
      "ĠFin": 8479,
      "ĠForm": 8480,
      "ĠFore": 8481,
      "ĠFont": 8482,
      "ĠFoot": 8483,
      "ĠÄłKa": 8484,
      "ĠÄłKr": 8485,
      "ĠÄłKar": 8486,
      "ĠÄłKor": 8487,
      "ĠÄłKel": 8488,
      "ĠÄłKard": 8489,
      "ĠÄłKend": 8490,
      "ĠÄłKath": 8491,
      "ĠÄłKnow": 8492,
      "ĠÄłKaz": 8493,
      "ĠÄłKey": 8494,
      "Ġchain": 8495,
      "Ġchron": 8496,
      "Ġcharge": 8497,
      "Ġistical": 8498,
      "Ġuma": 8499,
      "Ġumper": 8500,
      "Ġumph": 8501,
      "Ġumatic": 8502,
      "Ġ62": 8503,
      "ĠLD": 8504,
      "ĠLim": 8505,
      "ĠList": 8506,
      "ĠLook": 8507,
      "Ġomer": 8508,
      "Ġomical": 8509,
      "Ġomatic": 8510,
      "Ġosc": 8511,
      "Ġoser": 8512,
      "Ġosion": 8513,
      "Ġosity": 8514,
      "Ġosite": 8515,
      "Ġosures": 8516,
      "ĠÄłexac": 8517,
      "ĠÄłexcess": 8518,
      "ĠÄłexempt": 8519,
      "ĠÄłexagger": 8520,
      "Ġulu": 8521,
      "Ġ41": 8522,
      "Ġ42": 8523,
      "ĠÄłproc": 8524,
      "ĠÄłprox": 8525,
      "ĠÄłprolet": 8526,
      "Ġelled": 8527,
      "Ġelines": 8528,
      "Ġuns": 8529,
      "Ġunal": 8530,
      "Ġunicip": 8531,
      "ĠÄłOF": 8532,
      "ĠÄłON": 8533,
      "ĠÄłOR": 8534,
      "ĠÄłOd": 8535,
      "ĠÄłOm": 8536,
      "ĠÄłOri": 8537,
      "ĠÄłOpp": 8538,
      "ĠÄłOther": 8539,
      "ĠÄłOwn": 8540,
      "ird": 8541,
      "Ġante": 8542,
      "Ġanto": 8543,
      "Ġantle": 8544,
      "Ġantom": 8545,
      "Ġakh": 8546,
      "Ġaki": 8547,
      "Ġaku": 8548,
      "Ġaky": 8549,
      "Ġifle": 8550,
      "Ġiform": 8551,
      "Ġifact": 8552,
      "Ġuter": 8553,
      "Ġuton": 8554,
      "Ġuties": 8555,
      "Ġutive": 8556,
      "Ġutable": 8557,
      "ĠÄłVin": 8558,
      "ĠÄłVar": 8559,
      "ĠÄłViol": 8560,
      "ĠÄłVID": 8561,
      "ĠÄłViet": 8562,
      "ĠÄłVari": 8563,
      "ĠÄłVaugh": 8564,
      "andom": 8565,
      "umm": 8566,
      "umn": 8567,
      "Ġ03": 8568,
      "ĠÄłcomr": 8569,
      "Ġigo": 8570,
      "Ġignt": 8571,
      "Ġigan": 8572,
      "Ġigate": 8573,
      "Ġigure": 8574,
      "Ġigma": 8575,
      "Ġacer": 8576,
      "Ġacre": 8577,
      "Ġacies": 8578,
      "Ġacist": 8579,
      "Ġacious": 8580,
      "Ġaccept": 8581,
      "Ġaccess": 8582,
      "Ġateur": 8583,
      "Ġateful": 8584,
      "ĠÄłJP": 8585,
      "ĠÄłJa": 8586,
      "ĠÄłJan": 8587,
      "ĠÄłJen": 8588,
      "ĠÄłJun": 8589,
      "ĠÄłJam": 8590,
      "ĠÄłJess": 8591,
      "ĠÄłJust": 8592,
      "ĠÄłJag": 8593,
      "ĠÄłJere": 8594,
      "ĠÄłJournal": 8595,
      "asure": 8596,
      "ĠUC": 8597,
      "ĠUE": 8598,
      "ĠUr": 8599,
      "ĠUCT": 8600,
      "ĠÄłrall": 8601,
      "ĠÄłrug": 8602,
      "ĠÄłrational": 8603,
      "ĠÄłrandom": 8604,
      "Ġirs": 8605,
      "Ġiry": 8606,
      "Ġiron": 8607,
      "Ġiration": 8608,
      "Ġirrel": 8609,
      "ĠNC": 8610,
      "ĠND": 8611,
      "ĠNE": 8612,
      "ĠNG": 8613,
      "ĠNN": 8614,
      "ĠNS": 8615,
      "ĠNew": 8616,
      "ĠNING": 8617,
      "ĠNBC": 8618,
      "ĠHC": 8619,
      "ĠHH": 8620,
      "ĠHL": 8621,
      "ĠHel": 8622,
      "ĠHow": 8623,
      "ĠHand": 8624,
      "Ġemin": 8625,
      "Ġemen": 8626,
      "Ġemies": 8627,
      "Ġowa": 8628,
      "ĠÄłdisb": 8629,
      "ĠÄłdise": 8630,
      "ĠÄłdish": 8631,
      "ĠÄłdisgr": 8632,
      "ĠGG": 8633,
      "ĠGR": 8634,
      "ĠGl": 8635,
      "ĠGet": 8636,
      "ĠGGG": 8637,
      "ortion": 8638,
      "ortun": 8639,
      "Ġzo": 8640,
      "Ġzer": 8641,
      "Ġzes": 8642,
      "Ġzill": 8643,
      "Ġzens": 8644,
      "Ġzone": 8645,
      "Ġzona": 8646,
      "Ġizer": 8647,
      "Ġizont": 8648,
      "Ġizoph": 8649,
      "Ġizabet": 8650,
      "ĠÄłspin": 8651,
      "ĠÄłspot": 8652,
      "ĠÄłspont": 8653,
      "ĠÄłspray": 8654,
      "essage": 8655,
      "Ġesters": 8656,
      "Ġestial": 8657,
      "Ġestone": 8658,
      "Ġestival": 8659,
      "Ġesthes": 8660,
      "Ġenda": 8661,
      "Ġendar": 8662,
      "Ġendant": 8663,
      "Ġendment": 8664,
      "Ġendix": 8665,
      "ecific": 8666,
      "Ġiva": 8667,
      "Ġivic": 8668,
      "Ġivia": 8669,
      "Ġivable": 8670,
      "Ġ86": 8671,
      "ĠWill": 8672,
      "ĠWind": 8673,
      "ĠWrit": 8674,
      "ĠWAY": 8675,
      "Ġ93": 8676,
      "Ġ97": 8677,
      "Ġopes": 8678,
      "Ġopen": 8679,
      "Ġopic": 8680,
      "Ġopard": 8681,
      "Ġoples": 8682,
      "Ġopath": 8683,
      "ĠÄłcoh": 8684,
      "ĠÄłcous": 8685,
      "ĠÄłcoff": 8686,
      "ĠÄłcoast": 8687,
      "ĠÄłcoup": 8688,
      "ĠÄłcoerc": 8689,
      "ĠÄłcogn": 8690,
      "Ġapy": 8691,
      "Ġapan": 8692,
      "Ġaples": 8693,
      "Ġapolis": 8694,
      "Ġallic": 8695,
      "Ġallas": 8696,
      "Ġallery": 8697,
      "ĠÃ£Ä§ÄŃ": 8698,
      "istic": 8699,
      "ĠÄłshar": 8700,
      "ĠÄłshot": 8701,
      "ĠÄłship": 8702,
      "ĠÄłshare": 8703,
      "ĠÄłshock": 8704,
      "Ġaylor": 8705,
      "Ġocc": 8706,
      "Ġocy": 8707,
      "Ġocity": 8708,
      "Ġocial": 8709,
      "Ġocide": 8710,
      "Ġocracy": 8711,
      "Ġandy": 8712,
      "Ġanded": 8713,
      "ĠÄłchim": 8714,
      "ĠÄłchron": 8715,
      "ĠÄłchuck": 8716,
      "ĠÄłchlor": 8717,
      "ĠÄłchief": 8718,
      "ĠÄłUb": 8719,
      "ĠÄłUl": 8720,
      "ĠÄłenv": 8721,
      "ĠÄłenorm": 8722,
      "ĠÄłenact": 8723,
      "ĠÄłenlight": 8724,
      "Ġoda": 8725,
      "Ġods": 8726,
      "Ġodus": 8727,
      "Ġodore": 8728,
      "Ġodox": 8729,
      "Ġodynam": 8730,
      "Ġtermin": 8731,
      "Ġterior": 8732,
      "ĠÄłStre": 8733,
      "ĠÄłStan": 8734,
      "ĠÄłStra": 8735,
      "osis": 8736,
      "osph": 8737,
      "osex": 8738,
      "Ġiao": 8739,
      "Ġiaz": 8740,
      "Ġouble": 8741,
      "Ġtha": 8742,
      "Ġthen": 8743,
      "Ġthur": 8744,
      "Ġthood": 8745,
      "Ġthrop": 8746,
      "Ġthrough": 8747,
      "Ġthodox": 8748,
      "ĠÄładul": 8749,
      "ĠÄładequ": 8750,
      "Ġibal": 8751,
      "Ġibling": 8752,
      "Ġensen": 8753,
      "Ġensitive": 8754,
      "Ġsex": 8755,
      "Ġseen": 8756,
      "Ġseless": 8757,
      "Ġillance": 8758,
      "Ġastically": 8759,
      "ĠVD": 8760,
      "ĠVP": 8761,
      "ĠVis": 8762,
      "Ġipal": 8763,
      "Ġipment": 8764,
      "Ġiang": 8765,
      "Ġiann": 8766,
      "Ġiano": 8767,
      "Ġiances": 8768,
      "Ġxit": 8769,
      "Ġieve": 8770,
      "Ġiege": 8771,
      "Ġieves": 8772,
      "Ġardo": 8773,
      "Ġarding": 8774,
      "Ġardless": 8775,
      "Ġja": 8776,
      "Ġju": 8777,
      "Ġjan": 8778,
      "Ġjri": 8779,
      "Ġjud": 8780,
      "Ġjury": 8781,
      "ĠÄłCho": 8782,
      "ĠÄłChem": 8783,
      "ĠÄłChap": 8784,
      "ĠÄłChild": 8785,
      "ĠÄłCharg": 8786,
      "ĠÄłChamp": 8787,
      "ĠÄłChron": 8788,
      "ĠÄłRew": 8789,
      "ĠÄłReal": 8790,
      "ĠÄłRece": 8791,
      "ĠÄłRevel": 8792,
      "ĥÄ¶": 8793,
      "ĠÄłank": 8794,
      "ĠÄłanx": 8795,
      "ĠÄłanat": 8796,
      "ĠÄłanne": 8797,
      "ĠÄłanonym": 8798,
      "ipher": 8799,
      "Ġavid": 8800,
      "Ġavier": 8801,
      "Ġavior": 8802,
      "Ġheart": 8803,
      "Ġheard": 8804,
      "Ġhealth": 8805,
      "ĠÄłclub": 8806,
      "ĠÄłclick": 8807,
      "ĠÄłcloud": 8808,
      "Ġplan": 8809,
      "Ġpling": 8810,
      "Ġplac": 8811,
      "Ġplug": 8812,
      "ĠÄłsear": 8813,
      "ĠÄłseam": 8814,
      "ĠÄłsever": 8815,
      "ĠÄłseiz": 8816,
      "ĠÄłseek": 8817,
      "ĠÄłInv": 8818,
      "Ġangular": 8819,
      "Ġourt": 8820,
      "Ġourney": 8821,
      "ĠÄłscal": 8822,
      "ĠÄłscan": 8823,
      "ĠÄłscra": 8824,
      "ĠÄłscore": 8825,
      "ĠÄłscroll": 8826,
      "ĠÄłsculpt": 8827,
      "ĠÄłjer": 8828,
      "ĠÄłjoy": 8829,
      "ĠÄłjoint": 8830,
      "ĠÄłjump": 8831,
      "ĠÄłjihad": 8832,
      "ĠÄłreson": 8833,
      "ĠÄłresil": 8834,
      "ivan": 8835,
      "iving": 8836,
      "ĠÄłkin": 8837,
      "ĠÄłking": 8838,
      "ĠÄłkit": 8839,
      "Ġcler": 8840,
      "Ġclone": 8841,
      "ĠÄłtruth": 8842,
      "ĠÄłled": 8843,
      "ĠÄłlength": 8844,
      "ĠÄłconting": 8845,
      "ĠÄłcontest": 8846,
      "ĠÄłcontext": 8847,
      "Ġctr": 8848,
      "Ġctuary": 8849,
      "Ġorses": 8850,
      "Ġorship": 8851,
      "iev": 8852,
      "ĠÄłcompe": 8853,
      "ĠÄłcompat": 8854,
      "ĠÄłcomprehens": 8855,
      "Ġquick": 8856,
      "Ġachus": 8857,
      "Ġachment": 8858,
      "Ġachine": 8859,
      "ĠÄłprest": 8860,
      "ĠÄłprepar": 8861,
      "ĠÄłprejud": 8862,
      "Ġureau": 8863,
      "ibility": 8864,
      "ĠJo": 8865,
      "ĠJust": 8866,
      "ĠJoh": 8867,
      "ĠKK": 8868,
      "Ġessel": 8869,
      "Ġickr": 8870,
      "ĠÄłSho": 8871,
      "ĠÄłShan": 8872,
      "ĠÄłShut": 8873,
      "ĠÄłShow": 8874,
      "ĠÄłConnect": 8875,
      "ĠÄłthous": 8876,
      "ĠÄłthick": 8877,
      "ĠÄłthrow": 8878,
      "ĠÄłthough": 8879,
      "ĠÄłthread": 8880,
      "Ġousing": 8881,
      "ocused": 8882,
      "phia": 8883,
      "ĠÄłrod": 8884,
      "ĠÄłrom": 8885,
      "ĠÄłrou": 8886,
      "ĠÄłrook": 8887,
      "Ġighty": 8888,
      "Ġobb": 8889,
      "Ġobil": 8890,
      "Ġactic": 8891,
      "Ġacters": 8892,
      "Ġactly": 8893,
      "Ġrued": 8894,
      "Ġruary": 8895,
      "Ġortex": 8896,
      "Ġortium": 8897,
      "agraph": 8898,
      "Ġackle": 8899,
      "ĠÄłplun": 8900,
      "ĠÄłplag": 8901,
      "ĠÄłplace": 8902,
      "ĠÄłplaint": 8903,
      "ĠÄłneut": 8904,
      "ĠÄłempt": 8905,
      "ĠÄłempower": 8906,
      "ĠÄłflow": 8907,
      "ĠÄłflag": 8908,
      "ĠÄłflaw": 8909,
      "Ġoutube": 8910,
      "Ġudo": 8911,
      "Ġudes": 8912,
      "Ġatories": 8913,
      "Ġarted": 8914,
      "Ġarters": 8915,
      "ĠÃ¢Ä¶": 8916,
      "ĠÃ¢Ä¹": 8917,
      "ĠÃ¢Ä»": 8918,
      "ultane": 8919,
      "ĠÄłarc": 8920,
      "ĠÄłarom": 8921,
      "ĠÄłarous": 8922,
      "ĠÄłarrog": 8923,
      "Ġoku": 8924,
      "Ġokemon": 8925,
      "asty": 8926,
      "Ġ\".": 8927,
      "Ġ\"]": 8928,
      "Ġ\"}": 8929,
      "ĠÄłÃĻ": 8930,
      "Ġarez": 8931,
      "ĠÄłblat": 8932,
      "ĠÄłblank": 8933,
      "Ġphabet": 8934,
      "Ġusters": 8935,
      "ĠYou": 8936,
      "Ġptive": 8937,
      "Ġpering": 8938,
      "Ġperor": 8939,
      "Ġperial": 8940,
      "Ġperature": 8941,
      "ĠÄłrecount": 8942,
      "Ġnew": 8943,
      "Ġnell": 8944,
      "Ġnever": 8945,
      "Ġneys": 8946,
      "ĠÄłsubp": 8947,
      "ĠÄłsubur": 8948,
      "ĠÄłsubord": 8949,
      "ĠÄłsubse": 8950,
      "ĠÄłsubmar": 8951,
      "Ġassy": 8952,
      "Ġasses": 8953,
      "Ġockey": 8954,
      "Ġppers": 8955,
      "ĠÄłappell": 8956,
      "ĠÄłappeal": 8957,
      "Ġredients": 8958,
      "Ġresa": 8959,
      "Ġresident": 8960,
      "ĠÄłintu": 8961,
      "ĠÄłintest": 8962,
      "ĠÄłintens": 8963,
      "ĠÄłintox": 8964,
      "ĠÄłintoler": 8965,
      "ĠÄłintention": 8966,
      "ĠÄłalle": 8967,
      "ĠÄłalert": 8968,
      "ĠÄłalien": 8969,
      "ĠÄłalcoh": 8970,
      "ĠÄłalgorith": 8971,
      "Ġova": 8972,
      "Ġovo": 8973,
      "Ġovy": 8974,
      "Ġoval": 8975,
      "Ġoven": 8976,
      "Ġovers": 8977,
      "Ġovation": 8978,
      "ĠÄłbeet": 8979,
      "oret": 8980,
      "Ġllor": 8981,
      "Ġllers": 8982,
      "Ġheric": 8983,
      "Ġherry": 8984,
      "Ġorde": 8985,
      "Ġordon": 8986,
      "Ġordan": 8987,
      "ĠÄłYam": 8988,
      "ĠÄłYug": 8989,
      "ĠÄłYork": 8990,
      "Ġressing": 8991,
      "ĠÄłdiffic": 8992,
      "Ġasha": 8993,
      "Ġearly": 8994,
      "Ġearance": 8995,
      "ĠÄłatmosp": 8996,
      "ĠÄłquot": 8997,
      "ĠÄłquir": 8998,
      "ĠÄłquiet": 8999,
      "Ġawks": 9000,
      "Ġella": 9001,
      "ĠÄłProp": 9002,
      "ĠÄłProduct": 9003,
      "ĠÄłProced": 9004,
      "ĠÄłProcess": 9005,
      "ĠÄłProsecut": 9006,
      "ĠÄłincl": 9007,
      "ĠÄłincred": 9008,
      "ĠÄłincap": 9009,
      "ĠÄłincident": 9010,
      "ĠÄłincarcer": 9011,
      "Ġaha": 9012,
      "Ġahoo": 9013,
      "Ġaug": 9014,
      "ĠÄłinterm": 9015,
      "ĠÄłinteract": 9016,
      "ĠÄłinterpre": 9017,
      "ĠÄłinterrupt": 9018,
      "ĠÄłinterrog": 9019,
      "Ġiked": 9020,
      "Ġiking": 9021,
      "ĠÄłperm": 9022,
      "ĠÄłperman": 9023,
      "ĠÄłperipher": 9024,
      "ĠÄłSpot": 9025,
      "ĠÄłSpir": 9026,
      "ĠÄłSpect": 9027,
      "ĠÄłSpart": 9028,
      "Ġbern": 9029,
      "Ġbery": 9030,
      "Ġbered": 9031,
      "Ġgeons": 9032,
      "ĠoreAnd": 9033,
      "ĠÄłComb": 9034,
      "ape": 9035,
      "apan": 9036,
      "ĠÄłabst": 9037,
      "ĠÄłabdom": 9038,
      "ĠÄłAnaly": 9039,
      "Ġazed": 9040,
      "Ġazor": 9041,
      "ĠÄłslight": 9042,
      "ĠÄłpool": 9043,
      "ĠÄłimpe": 9044,
      "ĠÄłimprison": 9045,
      "ĠÄłorb": 9046,
      "ĠÄłorg": 9047,
      "ĠÄłorder": 9048,
      "ĠÄłorche": 9049,
      "Ġinsula": 9050,
      "ĠÄłupt": 9051,
      "ĠÄłupload": 9052,
      "Ġuggest": 9053,
      "Ġcomes": 9054,
      "ĠÄłassail": 9055,
      "ĠÄłArc": 9056,
      "ĠÄłArk": 9057,
      "ĠÄłLev": 9058,
      "ĠÄłLeon": 9059,
      "ĠÄłLeban": 9060,
      "Ġkef": 9061,
      "Ġkeep": 9062,
      "ĠÄłClin": 9063,
      "ĠÄłClar": 9064,
      "ĠÄłtell": 9065,
      "ĠÄłtelesc": 9066,
      "ĠÄłteasp": 9067,
      "Ġrible": 9068,
      "Ġribly": 9069,
      "ift": 9070,
      "ĠÄłconscious": 9071,
      "ĠÄłphr": 9072,
      "ĠÄłphosph": 9073,
      "ĠÄłaccus": 9074,
      "ĠÄłaccident": 9075,
      "Ġampion": 9076,
      "Ġamples": 9077,
      "Ġampions": 9078,
      "Ġampire": 9079,
      "ĠÄłinsult": 9080,
      "Ġtein": 9081,
      "ĠÄłindo": 9082,
      "ĠÄłindef": 9083,
      "ĠÄłindex": 9084,
      "ĠÄłindividual": 9085,
      "ĠÄłExec": 9086,
      "issance": 9087,
      "Ġacebook": 9088,
      "Ġaceutical": 9089,
      "Ġews": 9090,
      "Ġewater": 9091,
      "Ġeworks": 9092,
      "Ġshot": 9093,
      "Ġshine": 9094,
      "Ġshots": 9095,
      "ĠÄłprison": 9096,
      "Ġpex": 9097,
      "ĠÄłamount": 9098,
      "ĠÄłinfer": 9099,
      "ĠÄłinfilt": 9100,
      "ĠÄłinfring": 9101,
      "ĠStat": 9102,
      "ĠStand": 9103,
      "Ġmanuel": 9104,
      "ĠÄłtransition": 9105,
      "Ġupid": 9106,
      "ĠÄłweigh": 9107,
      "ĠÄłoverc": 9108,
      "ĠÄłoverw": 9109,
      "ĠÄłZion": 9110,
      "Ġinters": 9111,
      "Ġintage": 9112,
      "Ġarse": 9113,
      "Ġarser": 9114,
      "Ġarson": 9115,
      "Ġwear": 9116,
      "Ġweek": 9117,
      "ĠÄłcommon": 9118,
      "ĠÄłcommit": 9119,
      "ĠÄłcommem": 9120,
      "ĠÄłcommod": 9121,
      "ĠÄłdiscount": 9122,
      "ĠÄłdiscover": 9123,
      "ĠÄłdiscrep": 9124,
      "Ġixon": 9125,
      "Ġathon": 9126,
      "Ġrender": 9127,
      "Ġrencies": 9128,
      "ĠÄłattach": 9129,
      "000": 9130,
      "Ġ'.": 9131,
      "ĠÄłrefres": 9132,
      "ĠÄłrefuge": 9133,
      "Ġifice": 9134,
      "Ġificial": 9135,
      "aken": 9136,
      "Ġiov": 9137,
      "Ġpsy": 9138,
      "ĠÄłmaneu": 9139,
      "ĠÄłdefect": 9140,
      "ĠÄłScand": 9141,
      "ĠÄłScript": 9142,
      "ĠATED": 9143,
      "ĠATCH": 9144,
      "Ġffee": 9145,
      "Ġulty": 9146,
      "epress": 9147,
      "Ġapper": 9148,
      "Ġricane": 9149,
      "Ġricanes": 9150,
      "ĠÄłswall": 9151,
      "ĠÄłdesert": 9152,
      "Ġlington": 9153,
      "ĠÄłtoss": 9154,
      "ĠÄłtopp": 9155,
      "ĠÄłtoile": 9156,
      "ĠÄłQual": 9157,
      "Ġlett": 9158,
      "Ġleton": 9159,
      "Ġrowth": 9160,
      "Ġ,'": 9161,
      "Ġ,,": 9162,
      "Ġ,,,": 9163,
      "Ġpring": 9164,
      "Ġprim": 9165,
      "Ġanna": 9166,
      "ĠÄłboot": 9167,
      "ĠÄłboard": 9168,
      "ĠÄłrelie": 9169,
      "ĠÄłrelations": 9170,
      "ĠÄłdecent": 9171,
      "ĠÄłexpand": 9172,
      "ĠÄłexpans": 9173,
      "ĠÄłexpend": 9174,
      "Ġiere": 9175,
      "Ġierre": 9176,
      "Ġierce": 9177,
      "ĠÄłcorrid": 9178,
      "ĠÄłcorner": 9179,
      "ĠÄłbrand": 9180,
      "ĠÄłwhat": 9181,
      "ĠÄłwhen": 9182,
      "ĠÄłye": 9183,
      "ĠÄłyear": 9184,
      "ĠÄłyouth": 9185,
      "ĠÄłparan": 9186,
      "ĠÄłparalle": 9187,
      "Ġvenant": 9188,
      "ished": 9189,
      "Ġosexual": 9190,
      "Ġoston": 9191,
      "Ġostic": 9192,
      "Ġciation": 9193,
      "Ġprodu": 9194,
      "Ġprocess": 9195,
      "ĠÄłtrain": 9196,
      "ĠÄłtract": 9197,
      "ĠÄłtraff": 9198,
      "ĠÄłtraged": 9199,
      "ĠÄłBeaut": 9200,
      "ĠQL": 9201,
      "ĠQue": 9202,
      "ĠÄłentr": 9203,
      "ĠÄłenter": 9204,
      "ĠÄłentire": 9205,
      "ĠÄłentert": 9206,
      "Ġissions": 9207,
      "ĠÄłglim": 9208,
      "ĠÄłglac": 9209,
      "ĠÄłglob": 9210,
      "Ġumbn": 9211,
      "Ġumbers": 9212,
      "Ġumbling": 9213,
      "Ġairy": 9214,
      "ĠÄłforce": 9215,
      "ĠÄłforward": 9216,
      "ĠÄłforfe": 9217,
      "ĠÄłregular": 9218,
      "ĠÄłregener": 9219,
      "Ġysis": 9220,
      "Ġondon": 9221,
      "Ġonday": 9222,
      "Ġolds": 9223,
      "Ġoyd": 9224,
      "ĠÄłdetain": 9225,
      "ĠÄłdetail": 9226,
      "ĠÄłdetrim": 9227,
      "ĠÄłdistinct": 9228,
      "Ġanka": 9229,
      "Ġankind": 9230,
      "ĠÄłBrun": 9231,
      "nell": 9232,
      "Ġ=~": 9233,
      "ĠÄłSeb": 9234,
      "Ġversion": 9235,
      "ĠÄłgrin": 9236,
      "ĠÄłgrat": 9237,
      "ĠÄłguid": 9238,
      "ĠÄłwors": 9239,
      "ĠORY": 9240,
      "ĠÄłUnic": 9241,
      "ailable": 9242,
      "Ġeconom": 9243,
      "Ġullivan": 9244,
      "Ġucker": 9245,
      "Ġscrib": 9246,
      "Ġscreen": 9247,
      "Ġscience": 9248,
      "Ġscape": 9249,
      "Ġcoins": 9250,
      "ĠÄłNeg": 9251,
      "ĠÄłNev": 9252,
      "ĠÄłNeed": 9253,
      "ĠÄłNeigh": 9254,
      "ĠÄłNeuro": 9255,
      "ĠÄłdepri": 9256,
      "ĠÄłdepos": 9257,
      "Ġ?\"": 9258,
      "Ġateral": 9259,
      "Ġaternal": 9260,
      "Ġplement": 9261,
      "ĠÄłCooper": 9262,
      "ĠÄłagric": 9263,
      "ĠÄłagree": 9264,
      "ĠÄłmeet": 9265,
      "Ġbeh": 9266,
      "Ġbell": 9267,
      "Ġbeit": 9268,
      "ĠÄłretire": 9269,
      "ĠÄłretail": 9270,
      "Ġnered": 9271,
      "ĠÄłevent": 9272,
      "ĠÄłevang": 9273,
      "Ġushes": 9274,
      "Ġossibly": 9275,
      "Ġective": 9276,
      "ĠÄłcolle": 9277,
      "ĠÄłcolor": 9278,
      "ĠÄłcolleg": 9279,
      "ĠÄłcolumn": 9280,
      "Ġrones": 9281,
      "Ġspec": 9282,
      "ĠÄłautonom": 9283,
      "Ġhesive": 9284,
      "ĠÄłPharm": 9285,
      "ĠÄłMarx": 9286,
      "ĠÄłMarsh": 9287,
      "egu": 9288,
      "ĠÄłrapp": 9289,
      "ĠÄłraid": 9290,
      "ĠÄłsky": 9291,
      "ĠÄłanten": 9292,
      "Ġventory": 9293,
      "Ġventures": 9294,
      "ĠÄłhaun": 9295,
      "ĠÄłhair": 9296,
      "ĠÄłHell": 9297,
      "ĠÄłHealth": 9298,
      "ĠÄłunderest": 9299,
      "ypse": 9300,
      "ĠÄłcave": 9301,
      "ĠÄłcaut": 9302,
      "ĠÄłsmall": 9303,
      "ĠÄłsmugg": 9304,
      "Ġerness": 9305,
      "ĠÄłfeas": 9306,
      "ikarp": 9307,
      "Ġ!\"": 9308,
      "Ġ::": 9309,
      "Ġ:::": 9310,
      "ĠÄłsole": 9311,
      "ĠÄłsouth": 9312,
      "ĠÄłsovere": 9313,
      "ĠÄłdoes": 9314,
      "ĠÄłdoor": 9315,
      "ĠÄłmetic": 9316,
      "ĠÄłAmb": 9317,
      "ĠÄłMcM": 9318,
      "ĠÄłinstit": 9319,
      "ĠÄłinstinct": 9320,
      "Ġotton": 9321,
      "................": 9322,
      "Ġaxy": 9323,
      "ĠÄłpartners": 9324,
      "ĠÄłash": 9325,
      "ĠÄłask": 9326,
      "ĠÄłaspir": 9327,
      "ĠÄładvance": 9328,
      "Ġntil": 9329,
      "Ġinese": 9330,
      "Ġarmed": 9331,
      "Ġornia": 9332,
      "ĠÄłreven": 9333,
      "ĠÄłrevolution": 9334,
      "Ġternity": 9335,
      "Ġ\\/": 9336,
      "Ġ\\\\": 9337,
      "Ġiffe": 9338,
      "Ġafter": 9339,
      "Ġafia": 9340,
      "Ġafety": 9341,
      "Ġoots": 9342,
      "Ġuffer": 9343,
      "Ġufficient": 9344,
      "ĠÄłcheap": 9345,
      "Ġconf": 9346,
      "Ġconst": 9347,
      "Ġerves": 9348,
      "Ġerving": 9349,
      "Ġervation": 9350,
      "Ġervative": 9351,
[...]
